{
  "version": "1.0",
  "truncation": null,
  "padding": null,
  "added_tokens": [
    {
      "id": 0,
      "content": "<s>",
      "single_word": false,
      "lstrip": false,
      "rstrip": false,
      "normalized": false,
      "special": true
    },
    {
      "id": 1,
      "content": "<pad>",
      "single_word": false,
      "lstrip": false,
      "rstrip": false,
      "normalized": false,
      "special": true
    },
    {
      "id": 2,
      "content": "</s>",
      "single_word": false,
      "lstrip": false,
      "rstrip": false,
      "normalized": false,
      "special": true
    },
    {
      "id": 3,
      "content": "<unk>",
      "single_word": false,
      "lstrip": false,
      "rstrip": false,
      "normalized": false,
      "special": true
    },
    {
      "id": 4,
      "content": "<mask>",
      "single_word": false,
      "lstrip": false,
      "rstrip": false,
      "normalized": false,
      "special": true
    }
  ],
  "normalizer": {
    "type": "Sequence",
    "normalizers": [
      {
        "type": "NFD"
      },
      {
        "type": "StripAccents"
      }
    ]
  },
  "pre_tokenizer": {
    "type": "Sequence",
    "pretokenizers": [
      {
        "type": "Whitespace"
      },
      {
        "type": "Digits",
        "individual_digits": false
      }
    ]
  },
  "post_processor": null,
  "decoder": null,
  "model": {
    "type": "BPE",
    "dropout": null,
    "unk_token": "<unk>",
    "continuing_subword_prefix": null,
    "end_of_word_suffix": null,
    "fuse_unk": false,
    "byte_fallback": false,
    "vocab": {
      "<s>": 0,
      "<pad>": 1,
      "</s>": 2,
      "<unk>": 3,
      "<mask>": 4,
      "\u0000": 5,
      "\b": 6,
      "\u001b": 7,
      "!": 8,
      "#": 9,
      "$": 10,
      "%": 11,
      "&": 12,
      "(": 13,
      ")": 14,
      "*": 15,
      "+": 16,
      ",": 17,
      "-": 18,
      ".": 19,
      "/": 20,
      "0": 21,
      "1": 22,
      "2": 23,
      "3": 24,
      "4": 25,
      "5": 26,
      "6": 27,
      "7": 28,
      "8": 29,
      "9": 30,
      ":": 31,
      ";": 32,
      "<": 33,
      "=": 34,
      ">": 35,
      "?": 36,
      "@": 37,
      "A": 38,
      "B": 39,
      "C": 40,
      "D": 41,
      "E": 42,
      "F": 43,
      "G": 44,
      "H": 45,
      "I": 46,
      "J": 47,
      "K": 48,
      "L": 49,
      "M": 50,
      "N": 51,
      "O": 52,
      "P": 53,
      "Q": 54,
      "R": 55,
      "S": 56,
      "T": 57,
      "U": 58,
      "V": 59,
      "W": 60,
      "X": 61,
      "Y": 62,
      "Z": 63,
      "[": 64,
      "\\": 65,
      "]": 66,
      "^": 67,
      "_": 68,
      "`": 69,
      "a": 70,
      "b": 71,
      "c": 72,
      "d": 73,
      "e": 74,
      "f": 75,
      "g": 76,
      "h": 77,
      "i": 78,
      "j": 79,
      "k": 80,
      "l": 81,
      "m": 82,
      "n": 83,
      "o": 84,
      "p": 85,
      "q": 86,
      "r": 87,
      "s": 88,
      "t": 89,
      "u": 90,
      "v": 91,
      "w": 92,
      "x": 93,
      "y": 94,
      "z": 95,
      "{": 96,
      "|": 97,
      "}": 98,
      "~": 99,
      "": 100,
      "§": 101,
      "©": 102,
      "«": 103,
      "¬": 104,
      "­": 105,
      "®": 106,
      "°": 107,
      "²": 108,
      "³": 109,
      "·": 110,
      "»": 111,
      "Ø": 112,
      "ß": 113,
      "æ": 114,
      "ð": 115,
      "ø": 116,
      "Đ": 117,
      "ı": 118,
      "Ł": 119,
      "ł": 120,
      "Ε": 121,
      "Η": 122,
      "Λ": 123,
      "Ν": 124,
      "Ψ": 125,
      "Ω": 126,
      "А": 127,
      "В": 128,
      "И": 129,
      "К": 130,
      "М": 131,
      "О": 132,
      "П": 133,
      "Р": 134,
      "С": 135,
      "Т": 136,
      "У": 137,
      "Ц": 138,
      "Э": 139,
      "а": 140,
      "б": 141,
      "в": 142,
      "г": 143,
      "д": 144,
      "е": 145,
      "ж": 146,
      "з": 147,
      "и": 148,
      "к": 149,
      "л": 150,
      "м": 151,
      "н": 152,
      "о": 153,
      "п": 154,
      "р": 155,
      "с": 156,
      "т": 157,
      "у": 158,
      "ф": 159,
      "х": 160,
      "ц": 161,
      "ч": 162,
      "ш": 163,
      "щ": 164,
      "ы": 165,
      "ь": 166,
      "ю": 167,
      "я": 168,
      "ћ": 169,
      "ಠ": 170,
      "ᄀ": 171,
      "ᄃ": 172,
      "ᄅ": 173,
      "ᄇ": 174,
      "ᄉ": 175,
      "ᄋ": 176,
      "ᄌ": 177,
      "ᄎ": 178,
      "ᅡ": 179,
      "ᅥ": 180,
      "ᅧ": 181,
      "ᅩ": 182,
      "ᅪ": 183,
      "ᅬ": 184,
      "ᅮ": 185,
      "ᅳ": 186,
      "ᅵ": 187,
      "ᆨ": 188,
      "ᆫ": 189,
      "ᆯ": 190,
      "ᆼ": 191,
      "​": 192,
      "–": 193,
      "—": 194,
      "‘": 195,
      "’": 196,
      "“": 197,
      "”": 198,
      "•": 199,
      "…": 200,
      "€": 201,
      "₵": 202,
      "™": 203,
      "ℹ": 204,
      "≥": 205,
      "⌛": 206,
      "⏎": 207,
      "─": 208,
      "└": 209,
      "═": 210,
      "║": 211,
      "╔": 212,
      "╗": 213,
      "╚": 214,
      "╝": 215,
      "▶": 216,
      "☃": 217,
      "♥": 218,
      "✔": 219,
      "、": 220,
      "。": 221,
      "「": 222,
      "」": 223,
      "あ": 224,
      "い": 225,
      "う": 226,
      "え": 227,
      "か": 228,
      "き": 229,
      "く": 230,
      "け": 231,
      "こ": 232,
      "し": 233,
      "す": 234,
      "そ": 235,
      "た": 236,
      "ち": 237,
      "っ": 238,
      "て": 239,
      "と": 240,
      "な": 241,
      "に": 242,
      "の": 243,
      "は": 244,
      "ひ": 245,
      "へ": 246,
      "め": 247,
      "も": 248,
      "や": 249,
      "よ": 250,
      "ら": 251,
      "り": 252,
      "る": 253,
      "れ": 254,
      "わ": 255,
      "を": 256,
      "ん": 257,
      "ァ": 258,
      "ア": 259,
      "イ": 260,
      "ウ": 261,
      "ォ": 262,
      "カ": 263,
      "ク": 264,
      "ケ": 265,
      "コ": 266,
      "サ": 267,
      "シ": 268,
      "ス": 269,
      "ソ": 270,
      "チ": 271,
      "ッ": 272,
      "テ": 273,
      "ト": 274,
      "ハ": 275,
      "ヒ": 276,
      "フ": 277,
      "マ": 278,
      "ユ": 279,
      "ョ": 280,
      "ラ": 281,
      "ル": 282,
      "レ": 283,
      "ロ": 284,
      "ン": 285,
      "ー": 286,
      "一": 287,
      "上": 288,
      "下": 289,
      "不": 290,
      "与": 291,
      "世": 292,
      "东": 293,
      "两": 294,
      "个": 295,
      "中": 296,
      "串": 297,
      "临": 298,
      "为": 299,
      "义": 300,
      "之": 301,
      "也": 302,
      "了": 303,
      "于": 304,
      "云": 305,
      "些": 306,
      "交": 307,
      "仅": 308,
      "仍": 309,
      "从": 310,
      "他": 311,
      "代": 312,
      "令": 313,
      "以": 314,
      "仪": 315,
      "件": 316,
      "优": 317,
      "会": 318,
      "位": 319,
      "作": 320,
      "你": 321,
      "使": 322,
      "依": 323,
      "便": 324,
      "保": 325,
      "修": 326,
      "候": 327,
      "值": 328,
      "做": 329,
      "像": 330,
      "元": 331,
      "入": 332,
      "公": 333,
      "共": 334,
      "关": 335,
      "其": 336,
      "具": 337,
      "内": 338,
      "写": 339,
      "减": 340,
      "出": 341,
      "切": 342,
      "列": 343,
      "则": 344,
      "创": 345,
      "删": 346,
      "利": 347,
      "到": 348,
      "制": 349,
      "刻": 350,
      "削": 351,
      "前": 352,
      "功": 353,
      "加": 354,
      "务": 355,
      "动": 356,
      "効": 357,
      "動": 358,
      "包": 359,
      "化": 360,
      "匹": 361,
      "区": 362,
      "华": 363,
      "卓": 364,
      "卫": 365,
      "卸": 366,
      "历": 367,
      "压": 368,
      "参": 369,
      "叉": 370,
      "取": 371,
      "变": 372,
      "口": 373,
      "可": 374,
      "台": 375,
      "右": 376,
      "各": 377,
      "合": 378,
      "名": 379,
      "后": 380,
      "向": 381,
      "否": 382,
      "启": 383,
      "命": 384,
      "和": 385,
      "器": 386,
      "因": 387,
      "固": 388,
      "国": 389,
      "图": 390,
      "在": 391,
      "地": 392,
      "址": 393,
      "均": 394,
      "块": 395,
      "坚": 396,
      "坛": 397,
      "域": 398,
      "基": 399,
      "場": 400,
      "境": 401,
      "增": 402,
      "处": 403,
      "备": 404,
      "外": 405,
      "多": 406,
      "大": 407,
      "失": 408,
      "头": 409,
      "夹": 410,
      "女": 411,
      "好": 412,
      "始": 413,
      "字": 414,
      "存": 415,
      "它": 416,
      "安": 417,
      "完": 418,
      "官": 419,
      "定": 420,
      "实": 421,
      "実": 422,
      "容": 423,
      "寅": 424,
      "密": 425,
      "对": 426,
      "导": 427,
      "将": 428,
      "小": 429,
      "少": 430,
      "尾": 431,
      "屈": 432,
      "展": 433,
      "属": 434,
      "工": 435,
      "左": 436,
      "已": 437,
      "平": 438,
      "并": 439,
      "序": 440,
      "库": 441,
      "应": 442,
      "度": 443,
      "廷": 444,
      "建": 445,
      "开": 446,
      "式": 447,
      "引": 448,
      "张": 449,
      "弦": 450,
      "归": 451,
      "当": 452,
      "录": 453,
      "径": 454,
      "得": 455,
      "必": 456,
      "志": 457,
      "态": 458,
      "態": 459,
      "成": 460,
      "我": 461,
      "戻": 462,
      "所": 463,
      "打": 464,
      "执": 465,
      "扩": 466,
      "扫": 467,
      "把": 468,
      "括": 469,
      "拷": 470,
      "持": 471,
      "指": 472,
      "据": 473,
      "排": 474,
      "接": 475,
      "控": 476,
      "提": 477,
      "搭": 478,
      "擎": 479,
      "支": 480,
      "改": 481,
      "放": 482,
      "数": 483,
      "整": 484,
      "文": 485,
      "新": 486,
      "方": 487,
      "施": 488,
      "旋": 489,
      "无": 490,
      "日": 491,
      "旧": 492,
      "时": 493,
      "是": 494,
      "显": 495,
      "時": 496,
      "暴": 497,
      "更": 498,
      "書": 499,
      "替": 500,
      "最": 501,
      "月": 502,
      "有": 503,
      "服": 504,
      "未": 505,
      "本": 506,
      "权": 507,
      "李": 508,
      "束": 509,
      "来": 510,
      "构": 511,
      "析": 512,
      "果": 513,
      "架": 514,
      "校": 515,
      "核": 516,
      "格": 517,
      "框": 518,
      "桌": 519,
      "桓": 520,
      "業": 521,
      "模": 522,
      "止": 523,
      "正": 524,
      "此": 525,
      "毎": 526,
      "法": 527,
      "测": 528,
      "浏": 529,
      "添": 530,
      "清": 531,
      "源": 532,
      "無": 533,
      "然": 534,
      "片": 535,
      "版": 536,
      "物": 537,
      "状": 538,
      "王": 539,
      "环": 540,
      "现": 541,
      "現": 542,
      "理": 543,
      "生": 544,
      "用": 545,
      "界": 546,
      "痕": 547,
      "発": 548,
      "登": 549,
      "百": 550,
      "的": 551,
      "监": 552,
      "盖": 553,
      "目": 554,
      "看": 555,
      "知": 556,
      "石": 557,
      "码": 558,
      "础": 559,
      "硬": 560,
      "禁": 561,
      "禅": 562,
      "程": 563,
      "站": 564,
      "端": 565,
      "符": 566,
      "等": 567,
      "算": 568,
      "管": 569,
      "系": 570,
      "级": 571,
      "组": 572,
      "细": 573,
      "结": 574,
      "给": 575,
      "统": 576,
      "续": 577,
      "缓": 578,
      "编": 579,
      "缩": 580,
      "网": 581,
      "置": 582,
      "者": 583,
      "能": 584,
      "腾": 585,
      "自": 586,
      "致": 587,
      "良": 588,
      "节": 589,
      "获": 590,
      "著": 591,
      "蒼": 592,
      "行": 593,
      "表": 594,
      "装": 595,
      "西": 596,
      "要": 597,
      "覆": 598,
      "見": 599,
      "览": 600,
      "解": 601,
      "設": 602,
      "认": 603,
      "讯": 604,
      "论": 605,
      "设": 606,
      "访": 607,
      "证": 608,
      "译": 609,
      "试": 610,
      "详": 611,
      "误": 612,
      "请": 613,
      "调": 614,
      "谢": 615,
      "贝": 616,
      "败": 617,
      "赖": 618,
      "走": 619,
      "起": 620,
      "跨": 621,
      "路": 622,
      "車": 623,
      "転": 624,
      "转": 625,
      "软": 626,
      "轻": 627,
      "载": 628,
      "辑": 629,
      "输": 630,
      "辞": 631,
      "过": 632,
      "运": 633,
      "这": 634,
      "进": 635,
      "连": 636,
      "迹": 637,
      "追": 638,
      "退": 639,
      "递": 640,
      "通": 641,
      "道": 642,
      "邦": 643,
      "部": 644,
      "都": 645,
      "配": 646,
      "里": 647,
      "重": 648,
      "量": 649,
      "銘": 650,
      "针": 651,
      "链": 652,
      "错": 653,
      "镜": 654,
      "開": 655,
      "问": 656,
      "防": 657,
      "阿": 658,
      "限": 659,
      "除": 660,
      "集": 661,
      "需": 662,
      "露": 663,
      "面": 664,
      "顺": 665,
      "题": 666,
      "额": 667,
      "驱": 668,
      "验": 669,
      "髦": 670,
      "魏": 671,
      "默": 672,
      "ﬁ": 673,
      "﻿": 674,
      "！": 675,
      "（": 676,
      "）": 677,
      "，": 678,
      "：": 679,
      "in": 680,
      "al": 681,
      "ar": 682,
      "&&": 683,
      "st": 684,
      "er": 685,
      "sh": 686,
      "en": 687,
      "on": 688,
      "ge": 689,
      "re": 690,
      "th": 691,
      "ma": 692,
      "ch": 693,
      "bin": 694,
      "co": 695,
      "ck": 696,
      "ON": 697,
      "se": 698,
      "de": 699,
      "com": 700,
      "ER": 701,
      "--": 702,
      "te": 703,
      "alen": 704,
      "balen": 705,
      "VER": 706,
      "SI": 707,
      "UN": 708,
      "SION": 709,
      "VERSION": 710,
      "RUN": 711,
      "_VERSION": 712,
      "il": 713,
      "us": 714,
      "ack": 715,
      "balena": 716,
      "ges": 717,
      "tar": 718,
      "all": 719,
      "pt": 720,
      "fo": 721,
      "inst": 722,
      "install": 723,
      "an": 724,
      "oc": 725,
      "ba": 726,
      "li": 727,
      "ke": 728,
      "un": 729,
      "me": 730,
      "py": 731,
      "gz": 732,
      "ss": 733,
      "thon": 734,
      ":/": 735,
      "cho": 736,
      "le": 737,
      "ima": 738,
      "key": 739,
      "tp": 740,
      "ht": 741,
      "echo": 742,
      "no": 743,
      "arn": 744,
      "ages": 745,
      "http": 746,
      "lin": 747,
      "ith": 748,
      "test": 749,
      "://": 750,
      "AR": 751,
      "usr": 752,
      "ur": 753,
      "man": 754,
      "yarn": 755,
      "tu": 756,
      "EN": 757,
      "rm": 758,
      "as": 759,
      "TH": 760,
      "lib": 761,
      "ta": 762,
      "con": 763,
      "stack": 764,
      "mand": 765,
      "command": 766,
      "get": 767,
      "python": 768,
      "ip": 769,
      "ca": 770,
      "ENV": 771,
      "go": 772,
      "apt": 773,
      "di": 774,
      "https": 775,
      "fe": 776,
      "or": 777,
      "ti": 778,
      "base": 779,
      "ock": 780,
      "with": 781,
      "ocker": 782,
      "mo": 783,
      "keys": 784,
      "info": 785,
      "ab": 786,
      "ver": 787,
      "bu": 788,
      "pack": 789,
      "ux": 790,
      "cur": 791,
      "/.": 792,
      "loc": 793,
      "local": 794,
      "node": 795,
      "curl": 796,
      "DE": 797,
      "var": 798,
      "is": 799,
      "it": 800,
      "et": 801,
      "CM": 802,
      "ild": 803,
      "linux": 804,
      "PY": 805,
      "dir": 806,
      "CMD": 807,
      "build": 808,
      "ent": 809,
      "pg": 810,
      "image": 811,
      "ils": 812,
      "ow": 813,
      "set": 814,
      "N_VERSION": 815,
      "YAR": 816,
      "ad": 817,
      "YARN_VERSION": 818,
      "mess": 819,
      "messages": 820,
      "bus": 821,
      "GO": 822,
      "io": 823,
      "ture": 824,
      "im": 825,
      "OM": 826,
      "ra": 827,
      "ro": 828,
      "ian": 829,
      "erver": 830,
      "De": 831,
      "ere": 832,
      "ocs": 833,
      "PA": 834,
      "tails": 835,
      "rf": 836,
      "Docker": 837,
      "ut": 838,
      "images": 839,
      "SL": 840,
      "id": 841,
      "PATH": 842,
      "da": 843,
      "shim": 844,
      "are": 845,
      "fi": 846,
      "mod": 847,
      "mk": 848,
      "keyserver": 849,
      "packages": 850,
      "ln": 851,
      "mkdir": 852,
      "tion": 853,
      "ww": 854,
      "ul": 855,
      "pip": 856,
      "ing": 857,
      "64": 858,
      "na": 859,
      "ce": 860,
      "ile": 861,
      "chmod": 862,
      "mv": 863,
      "of": 864,
      "SLO": 865,
      "to": 866,
      "77": 867,
      "file": 868,
      "THON": 869,
      "PYTHON": 870,
      "ap": 871,
      "FR": 872,
      "up": 873,
      "real": 874,
      "the": 875,
      "out": 876,
      "name": 877,
      "FROM": 878,
      "comp": 879,
      "opt": 880,
      "NO": 881,
      "op": 882,
      "gpg": 883,
      "ub": 884,
      "fea": 885,
      "about": 886,
      "docs": 887,
      "feature": 888,
      "iant": 889,
      "):": 890,
      "details": 891,
      "ed": 892,
      "NODE": 893,
      "NODE_VERSION": 894,
      "Here": 895,
      "che": 896,
      "for": 897,
      "Dockerfile": 898,
      "ARM": 899,
      "Run": 900,
      "dev": 901,
      "86": 902,
      "IN": 903,
      "av": 904,
      "open": 905,
      "date": 906,
      "lo": 907,
      "update": 908,
      "net": 909,
      "56": 910,
      "dbus": 911,
      "rec": 912,
      "ang": 913,
      "ava": 914,
      "cp": 915,
      "OS": 916,
      "fig": 917,
      "ine": 918,
      "java": 919,
      "recv": 920,
      "config": 921,
      "lang": 922,
      "ot": 923,
      "xt": 924,
      "/*": 925,
      "rc": 926,
      "gith": 927,
      "armv": 928,
      "um": 929,
      "asy": 930,
      "ase": 931,
      "Py": 932,
      "pine": 933,
      "run": 934,
      "Python": 935,
      "lease": 936,
      "08": 937,
      "golang": 938,
      "GOPATH": 939,
      "fa": 940,
      "ol": 941,
      "cache": 942,
      "-$": 943,
      "able": 944,
      "src": 945,
      "bash": 946,
      "ents": 947,
      "etc": 948,
      "ri": 949,
      "be": 950,
      "tch": 951,
      "wh": 952,
      "ac": 953,
      "mp": 954,
      "xz": 955,
      "our": 956,
      "19": 957,
      "pk": 958,
      "ssl": 959,
      "PYTHON_VERSION": 960,
      "asc": 961,
      "idle": 962,
      "untu": 963,
      "65": 964,
      "str": 965,
      "pkg": 966,
      "ib": 967,
      "GO_VERSION": 968,
      "age": 969,
      "ite": 970,
      "res": 971,
      "www": 972,
      "iner": 973,
      "No": 974,
      "tainer": 975,
      "OR": 976,
      "DI": 977,
      "cd": 978,
      "ee": 979,
      "ction": 980,
      "ho": 981,
      "72": 982,
      "strip": 983,
      "ll": 984,
      "link": 985,
      "alpine": 986,
      "po": 987,
      "compon": 988,
      "components": 989,
      "ui": 990,
      "vis": 991,
      "DIR": 992,
      "he": 993,
      "docker": 994,
      "ult": 995,
      "sc": 996,
      "alib": 997,
      "10": 998,
      "container": 999,
      "sha": 1000,
      "pre": 1001,
      "fault": 1002,
      "oft": 1003,
      "18": 1004,
      "CO": 1005,
      "ay": 1006,
      "soft": 1007,
      "$(": 1008,
      "ph": 1009,
      "org": 1010,
      "balenalib": 1011,
      "sf": 1012,
      "cont": 1013,
      "xzf": 1014,
      "ly": 1015,
      "package": 1016,
      "cture": 1017,
      "ware": 1018,
      "und": 1019,
      "cro": 1020,
      "chite": 1021,
      "chitecture": 1022,
      "||": 1023,
      "dk": 1024,
      "list": 1025,
      "add": 1026,
      "xtra": 1027,
      "software": 1028,
      "256": 1029,
      "${": 1030,
      "af": 1031,
      "end": 1032,
      "tmp": 1033,
      "please": 1034,
      "sum": 1035,
      "!/": 1036,
      "#!/": 1037,
      "78": 1038,
      "COPY": 1039,
      "ref": 1040,
      "raw": 1041,
      "00": 1042,
      "71": 1043,
      "deb": 1044,
      "install_": 1045,
      "content": 1046,
      "way": 1047,
      "ence": 1048,
      "off": 1049,
      "Ar": 1050,
      "buser": 1051,
      "githu": 1052,
      "busercontent": 1053,
      "githubusercontent": 1054,
      "cross": 1055,
      "Sh": 1056,
      "hf": 1057,
      "per": 1058,
      "tests": 1059,
      "dow": 1060,
      "ubuntu": 1061,
      "only": 1062,
      "DEV": 1063,
      "erence": 1064,
      "For": 1065,
      "ling": 1066,
      "this": 1067,
      "15": 1068,
      "rma": 1069,
      "reference": 1070,
      "14": 1071,
      "any": 1072,
      "informa": 1073,
      "Default": 1074,
      "install_packages": 1075,
      "iable": 1076,
      "was": 1077,
      "more": 1078,
      "variable": 1079,
      "Var": 1080,
      "variant": 1081,
      "features": 1082,
      "UDEV": 1083,
      "eep": 1084,
      "Extra": 1085,
      "Easy": 1086,
      "information": 1087,
      "where": 1088,
      "Architecture": 1089,
      "Variant": 1090,
      "Keep": 1091,
      "visit": 1092,
      "Show": 1093,
      "few": 1094,
      "idling": 1095,
      "/):": 1096,
      ">`": 1097,
      "anywhere": 1098,
      "home": 1099,
      "ript": 1100,
      "comm": 1101,
      "script": 1102,
      "installed": 1103,
      "js": 1104,
      "yarnpkg": 1105,
      "apk": 1106,
      "The": 1107,
      "ps": 1108,
      "llow": 1109,
      "down": 1110,
      "found": 1111,
      "uld": 1112,
      "load": 1113,
      "section": 1114,
      "uide": 1115,
      "follow": 1116,
      "Docs": 1117,
      "following": 1118,
      "could": 1119,
      "Guide": 1120,
      "Details": 1121,
      "preinstalled": 1122,
      "jdk": 1123,
      "ary": 1124,
      "scripts": 1125,
      "if": 1126,
      "$@": 1127,
      "22": 1128,
      "AIN": 1129,
      "bo": 1130,
      "30": 1131,
      "download": 1132,
      "php": 1133,
      "git": 1134,
      "dot": 1135,
      "WOR": 1136,
      "conf": 1137,
      "21": 1138,
      "dotnet": 1139,
      "ning": 1140,
      "LA": 1141,
      "WORK": 1142,
      "openssl": 1143,
      "ec": 1144,
      "sed": 1145,
      "make": 1146,
      "libr": 1147,
      "lists": 1148,
      "np": 1149,
      "sets": 1150,
      "16": 1151,
      "WORKDIR": 1152,
      "assets": 1153,
      "ve": 1154,
      "ends": 1155,
      "AD": 1156,
      "commends": 1157,
      "library": 1158,
      "877": 1159,
      "cad": 1160,
      "OO": 1161,
      "recommends": 1162,
      "US": 1163,
      "708": 1164,
      "7271": 1165,
      "/$": 1166,
      "OME": 1167,
      "batch": 1168,
      "782": 1169,
      "fca": 1170,
      "HOME": 1171,
      "Running": 1172,
      "sa": 1173,
      "86782": 1174,
      "accad": 1175,
      "ols": 1176,
      "ET": 1177,
      "ex": 1178,
      "pa": 1179,
      "20": 1180,
      "pe": 1181,
      "la": 1182,
      "arm": 1183,
      "int": 1184,
      "app": 1185,
      "cer": 1186,
      "12": 1187,
      "one": 1188,
      "arch": 1189,
      "49": 1190,
      "Deps": 1191,
      "am": 1192,
      "33": 1193,
      "./": 1194,
      "debian": 1195,
      "ic": 1196,
      "downloads": 1197,
      "tr": 1198,
      "do": 1199,
      "_HOME": 1200,
      "PYTHON_": 1201,
      "==": 1202,
      "pro": 1203,
      "ADD": 1204,
      "safe": 1205,
      "perm": 1206,
      "90": 1207,
      "pgp": 1208,
      "unsafe": 1209,
      "ressed": 1210,
      "compressed": 1211,
      "fSLO": 1212,
      "sk": 1213,
      "ion": 1214,
      "openjdk": 1215,
      "17": 1216,
      "ty": 1217,
      "43": 1218,
      "npm": 1219,
      "UT": 1220,
      "80": 1221,
      "ue": 1222,
      "cc": 1223,
      "bd": 1224,
      "AV": 1225,
      "*.": 1226,
      "eb": 1227,
      "gin": 1228,
      "99": 1229,
      "UTF": 1230,
      "AVA": 1231,
      "dist": 1232,
      "JAVA": 1233,
      "11": 1234,
      "aw": 1235,
      "vi": 1236,
      "share": 1237,
      "github": 1238,
      "type": 1239,
      "es": 1240,
      "_install": 1241,
      "zip": 1242,
      "box": 1243,
      "easy": 1244,
      "ts": 1245,
      "NG": 1246,
      "easy_install": 1247,
      "ools": 1248,
      ":$": 1249,
      "buildDeps": 1250,
      "true": 1251,
      "upg": 1252,
      "PT": 1253,
      "tupt": 1254,
      "tuptools": 1255,
      "75": 1256,
      "EX": 1257,
      "TAIN": 1258,
      "TAINER": 1259,
      "el": 1260,
      "busy": 1261,
      "busybox": 1262,
      "LS": 1263,
      "root": 1264,
      "777": 1265,
      "PI": 1266,
      "LANG": 1267,
      "POS": 1268,
      "aarch": 1269,
      "ify": 1270,
      "vm": 1271,
      "amd": 1272,
      "tes": 1273,
      "ry": 1274,
      "E_": 1275,
      "verify": 1276,
      "23": 1277,
      "resin": 1278,
      "P_VERSION": 1279,
      "dc": 1280,
      "JAVA_HOME": 1281,
      "63": 1282,
      "MAIN": 1283,
      "ter": 1284,
      "MAINTAINER": 1285,
      "aws": 1286,
      "tifi": 1287,
      "POSE": 1288,
      "13": 1289,
      "ama": 1290,
      "tive": 1291,
      "EXPOSE": 1292,
      "doc": 1293,
      "ql": 1294,
      "ha": 1295,
      "release": 1296,
      "tifica": 1297,
      "05": 1298,
      "zon": 1299,
      "certifica": 1300,
      "amazon": 1301,
      "amazonaws": 1302,
      "wget": 1303,
      "=/": 1304,
      "TR": 1305,
      "60": 1306,
      "SET": 1307,
      "OOLS": 1308,
      "rade": 1309,
      "certificates": 1310,
      "upgrade": 1311,
      "lean": 1312,
      "79": 1313,
      "DB": 1314,
      "PIP_VERSION": 1315,
      "==$": 1316,
      "por": 1317,
      "SETU": 1318,
      "];": 1319,
      "OOLS_VERSION": 1320,
      "gcc": 1321,
      "PYTHON_PIP_VERSION": 1322,
      "SETUPT": 1323,
      "SETUPTOOLS_VERSION": 1324,
      "db": 1325,
      "ginx": 1326,
      "84": 1327,
      "pool": 1328,
      "nginx": 1329,
      "PO": 1330,
      "jre": 1331,
      "pr": 1332,
      "nodejs": 1333,
      "ml": 1334,
      "mit": 1335,
      "clean": 1336,
      "[/": 1337,
      "os": 1338,
      "ME": 1339,
      "DF": 1340,
      "ARG": 1341,
      "done": 1342,
      "data": 1343,
      "26": 1344,
      "edu": 1345,
      "USER": 1346,
      "52": 1347,
      "sks": 1348,
      "keyservers": 1349,
      "ae": 1350,
      "and": 1351,
      "OOT": 1352,
      "600": 1353,
      "AA": 1354,
      "ource": 1355,
      "then": 1356,
      "IL": 1357,
      "user": 1358,
      "my": 1359,
      "AL": 1360,
      "EL": 1361,
      "AS": 1362,
      "log": 1363,
      "ROOT": 1364,
      "010": 1365,
      "em": 1366,
      "pydoc": 1367,
      "sion": 1368,
      "AN": 1369,
      "516": 1370,
      "66": 1371,
      "497": 1372,
      "89": 1373,
      "##": 1374,
      "cl": 1375,
      "Node": 1376,
      "ster": 1377,
      "146": 1378,
      "DFD": 1379,
      "DO": 1380,
      "09": 1381,
      "dn": 1382,
      "2497": 1383,
      "2130": 1384,
      "6599": 1385,
      "6006599": 1386,
      "08146": 1387,
      "5166006599": 1388,
      "Yarn": 1389,
      "_C": 1390,
      "INT": 1391,
      "jvm": 1392,
      "ure": 1393,
      "TRY": 1394,
      "latest": 1395,
      "Ub": 1396,
      "Ubuntu": 1397,
      "bian": 1398,
      "read": 1399,
      "ich": 1400,
      "server": 1401,
      "Debian": 1402,
      "source": 1403,
      "port": 1404,
      "releases": 1405,
      "Lin": 1406,
      "art": 1407,
      "ENTRY": 1408,
      "POINT": 1409,
      "ff": 1410,
      "point": 1411,
      "Linux": 1412,
      "ENTRYPOINT": 1413,
      "so": 1414,
      "RE": 1415,
      "++": 1416,
      "dis": 1417,
      "tools": 1418,
      "which": 1419,
      "ess": 1420,
      "og": 1421,
      "aut": 1422,
      "ore": 1423,
      "su": 1424,
      "US_VERSION": 1425,
      "))": 1426,
      "core": 1427,
      "}/": 1428,
      "fre": 1429,
      "04": 1430,
      "cli": 1431,
      "PYTHON_DB": 1432,
      "PYTHON_DBUS_VERSION": 1433,
      "sql": 1434,
      "ora": 1435,
      "ind": 1436,
      "61": 1437,
      "Al": 1438,
      "PYTHONPATH": 1439,
      "dirname": 1440,
      "ST": 1441,
      "bit": 1442,
      "Alpine": 1443,
      "libssl": 1444,
      "certs": 1445,
      "32": 1446,
      "exec": 1447,
      ">>": 1448,
      "version": 1449,
      "setuptools": 1450,
      "CE": 1451,
      "entry": 1452,
      "NET": 1453,
      "sup": 1454,
      "sy": 1455,
      "configure": 1456,
      "readlink": 1457,
      "yum": 1458,
      "vir": 1459,
      "In": 1460,
      "ssh": 1461,
      "FF": 1462,
      "~/.": 1463,
      "ache": 1464,
      "force": 1465,
      "DK": 1466,
      "_S": 1467,
      "find": 1468,
      "OL": 1469,
      "repo": 1470,
      "24": 1471,
      "main": 1472,
      "GOROOT": 1473,
      "Go": 1474,
      "apache": 1475,
      "LAB": 1476,
      "mic": 1477,
      "Se": 1478,
      "pl": 1479,
      "CC": 1480,
      "ssw": 1481,
      "entrypoint": 1482,
      "pm": 1483,
      "qui": 1484,
      "start": 1485,
      "LABEL": 1486,
      "gen": 1487,
      "roc": 1488,
      "ogle": 1489,
      "-${": 1490,
      "libc": 1491,
      "top": 1492,
      "cf": 1493,
      "google": 1494,
      "FA": 1495,
      "mysql": 1496,
      "ALL": 1497,
      "Pip": 1498,
      "=$(": 1499,
      "native": 1500,
      "devel": 1501,
      "nproc": 1502,
      "Setuptools": 1503,
      "AT": 1504,
      "virtu": 1505,
      "fetch": 1506,
      "060": 1507,
      "post": 1508,
      "ag": 1509,
      "UR": 1510,
      "{}": 1511,
      "jar": 1512,
      "ede": 1513,
      "df": 1514,
      "ini": 1515,
      "ie": 1516,
      "794": 1517,
      "DC": 1518,
      "150": 1519,
      "54": 1520,
      "ser": 1521,
      "BI": 1522,
      "ext": 1523,
      "inter": 1524,
      "asp": 1525,
      "53": 1526,
      "alter": 1527,
      "059": 1528,
      "CH": 1529,
      "txt": 1530,
      "wn": 1531,
      "alternative": 1532,
      "pi": 1533,
      "CB": 1534,
      "alternatives": 1535,
      "bc": 1536,
      "ring": 1537,
      "P_": 1538,
      "sktop": 1539,
      "bac": 1540,
      "mi": 1541,
      "88": 1542,
      "fetchDeps": 1543,
      "pypa": 1544,
      "CK": 1545,
      "keyring": 1546,
      "at": 1547,
      "ld": 1548,
      "933": 1549,
      "T_": 1550,
      "662": 1551,
      "dae": 1552,
      "ill": 1553,
      "tel": 1554,
      "430": 1555,
      "dnf": 1556,
      "286": 1557,
      "pyc": 1558,
      "475": 1559,
      "gn": 1560,
      "841": 1561,
      "time": 1562,
      "utils": 1563,
      "host": 1564,
      "reinstall": 1565,
      "334": 1566,
      ".*": 1567,
      "edesktop": 1568,
      "freedesktop": 1569,
      "pur": 1570,
      "pyo": 1571,
      "34": 1572,
      "cr": 1573,
      "dbd": 1574,
      "8049": 1575,
      "LI": 1576,
      "BU": 1577,
      "7776": 1578,
      "2861": 1579,
      "7761": 1580,
      "268049": 1581,
      "0602861": 1582,
      "37776": 1583,
      "DCFA": 1584,
      "CBCE": 1585,
      "93372": 1586,
      "-*": 1587,
      "51": 1588,
      "non": 1589,
      "bf": 1590,
      "mail": 1591,
      "purge": 1592,
      "active": 1593,
      "VOL": 1594,
      "74": 1595,
      "chown": 1596,
      "enable": 1597,
      "LO": 1598,
      "quire": 1599,
      "super": 1600,
      "VOLU": 1601,
      "VOLUME": 1602,
      "print": 1603,
      "chan": 1604,
      "dpkg": 1605,
      "}.": 1606,
      "unzip": 1607,
      "D_": 1608,
      "visor": 1609,
      "init": 1610,
      "pen": 1611,
      "fed": 1612,
      "require": 1613,
      "sele": 1614,
      "AG": 1615,
      "supervisor": 1616,
      "move": 1617,
      "interactive": 1618,
      "END": 1619,
      "clone": 1620,
      "73": 1621,
      "S_": 1622,
      "will": 1623,
      "FI": 1624,
      "dep": 1625,
      "DOT": 1626,
      "ONT": 1627,
      "DOTNET": 1628,
      "vice": 1629,
      "gre": 1630,
      "Intel": 1631,
      "Open": 1632,
      "AN_": 1633,
      "55": 1634,
      "ctions": 1635,
      "DEBI": 1636,
      "json": 1637,
      "70": 1638,
      "rub": 1639,
      "ye": 1640,
      "sudo": 1641,
      "ule": 1642,
      "qu": 1643,
      "fro": 1644,
      "noninteractive": 1645,
      "wor": 1646,
      "DEBIAN_": 1647,
      "retch": 1648,
      "ments": 1649,
      "postg": 1650,
      "93": 1651,
      "FRONT": 1652,
      "28": 1653,
      "FRONTEND": 1654,
      "DEBIAN_FRONTEND": 1655,
      "JDK": 1656,
      "files": 1657,
      "liba": 1658,
      "512": 1659,
      "env": 1660,
      "repos": 1661,
      "fix": 1662,
      "ruby": 1663,
      "seye": 1664,
      "xml": 1665,
      "selections": 1666,
      "ial": 1667,
      "68": 1668,
      "fb": 1669,
      "ou": 1670,
      "aa": 1671,
      "store": 1672,
      "postgres": 1673,
      "tag": 1674,
      "=$": 1675,
      "G_": 1676,
      "cation": 1677,
      "FIL": 1678,
      "gi": 1679,
      "ory": 1680,
      "alenv": 1681,
      "virtualenv": 1682,
      "BUIL": 1683,
      "####": 1684,
      "requirements": 1685,
      "nan": 1686,
      "lic": 1687,
      "RO": 1688,
      "cat": 1689,
      "we": 1690,
      "itch": 1691,
      "son": 1692,
      "OpenJDK": 1693,
      "ct": 1694,
      "ldconfig": 1695,
      "from": 1696,
      "=${": 1697,
      "ust": 1698,
      "PH": 1699,
      "ect": 1700,
      "fedora": 1701,
      "tup": 1702,
      "essie": 1703,
      "sources": 1704,
      "ual": 1705,
      "ud": 1706,
      "edge": 1707,
      "58": 1708,
      "mon": 1709,
      "javac": 1710,
      "44": 1711,
      "service": 1712,
      "NA": 1713,
      "ate": 1714,
      "stem": 1715,
      "ig": 1716,
      "gmail": 1717,
      "module": 1718,
      "del": 1719,
      "sbin": 1720,
      "_M": 1721,
      "work": 1722,
      "tial": 1723,
      "000": 1724,
      "76": 1725,
      "ull": 1726,
      "386": 1727,
      "gro": 1728,
      "client": 1729,
      "eo": 1730,
      "oser": 1731,
      "39": 1732,
      "sta": 1733,
      "_DIR": 1734,
      "ive": 1735,
      "ard": 1736,
      "composer": 1737,
      "stor": 1738,
      "manual": 1739,
      "ionic": 1740,
      "sswitch": 1741,
      "nsswitch": 1742,
      ")))": 1743,
      "default": 1744,
      "par": 1745,
      "bionic": 1746,
      "site": 1747,
      "tool": 1748,
      "gra": 1749,
      "storage": 1750,
      "ok": 1751,
      "50": 1752,
      "dd": 1753,
      "ties": 1754,
      "fc": 1755,
      "31": 1756,
      "common": 1757,
      "libdbus": 1758,
      "ential": 1759,
      "check": 1760,
      "web": 1761,
      "xen": 1762,
      "ber": 1763,
      "pub": 1764,
      "29": 1765,
      "xenial": 1766,
      "proper": 1767,
      "cos": 1768,
      "nano": 1769,
      "system": 1770,
      "Fed": 1771,
      "properties": 1772,
      "libg": 1773,
      "/${": 1774,
      "Fedora": 1775,
      "essential": 1776,
      "_US": 1777,
      "last": 1778,
      "ID": 1779,
      "export": 1780,
      "aspnet": 1781,
      "ppa": 1782,
      "69": 1783,
      "URL": 1784,
      "LIB": 1785,
      "57": 1786,
      "cb": 1787,
      "40": 1788,
      "ocon": 1789,
      "sdk": 1790,
      "min": 1791,
      "reposit": 1792,
      "code": 1793,
      "setup": 1794,
      "2020": 1795,
      "tomic": 1796,
      "apis": 1797,
      "FILE": 1798,
      "ugin": 1799,
      "ies": 1800,
      "api": 1801,
      "less": 1802,
      "postgresql": 1803,
      "deps": 1804,
      "INST": 1805,
      "ity": 1806,
      "dex": 1807,
      "html": 1808,
      "proj": 1809,
      "AP": 1810,
      "autore": 1811,
      "xf": 1812,
      "cal": 1813,
      "59": 1814,
      "zlib": 1815,
      "uly": 1816,
      "NAME": 1817,
      "plugin": 1818,
      "July": 1819,
      "clo": 1820,
      "stdc": 1821,
      "googleapis": 1822,
      "cre": 1823,
      "rpm": 1824,
      "search": 1825,
      "_CON": 1826,
      "IT": 1827,
      "libatomic": 1828,
      "libstdc": 1829,
      "qq": 1830,
      "jet": 1831,
      "cs": 1832,
      "cmake": 1833,
      "buster": 1834,
      "ans": 1835,
      "grep": 1836,
      "fs": 1837,
      "index": 1838,
      "cosmic": 1839,
      "INSTALL": 1840,
      "change": 1841,
      "elast": 1842,
      "autoremove": 1843,
      "bb": 1844,
      "_P": 1845,
      "dro": 1846,
      "dns": 1847,
      "imx": 1848,
      "xzC": 1849,
      "tom": 1850,
      "808": 1851,
      "ven": 1852,
      "back": 1853,
      "elastic": 1854,
      "archive": 1855,
      "disco": 1856,
      "focal": 1857,
      "aspnetcore": 1858,
      "ng": 1859,
      "]*": 1860,
      "md": 1861,
      "bund": 1862,
      "glib": 1863,
      "lu": 1864,
      "group": 1865,
      "libgcc": 1866,
      "ea": 1867,
      "jessie": 1868,
      "match": 1869,
      "en_US": 1870,
      "stretch": 1871,
      "([": 1872,
      "94": 1873,
      "ne": 1874,
      "27": 1875,
      "_sha": 1876,
      "ers": 1877,
      "ins": 1878,
      "03": 1879,
      "::": 1880,
      "kit": 1881,
      "xy": 1882,
      "SH": 1883,
      "builder": 1884,
      "cacerts": 1885,
      "46": 1886,
      "ef": 1887,
      "cent": 1888,
      "au": 1889,
      "gem": 1890,
      "Bu": 1891,
      "]*)": 1892,
      "repository": 1893,
      "yes": 1894,
      "]*.": 1895,
      "expr": 1896,
      "sv": 1897,
      "]*.[": 1898,
      "lob": 1899,
      "98": 1900,
      "..": 1901,
      "passw": 1902,
      "dl": 1903,
      "E_VERSION": 1904,
      "auto": 1905,
      "25": 1906,
      "clu": 1907,
      "eoan": 1908,
      "gnupg": 1909,
      "fpm": 1910,
      "96": 1911,
      "cloud": 1912,
      "pp": 1913,
      "master": 1914,
      "gr": 1915,
      "hel": 1916,
      "maven": 1917,
      "ror": 1918,
      "elasticsearch": 1919,
      "lab": 1920,
      "95": 1921,
      "tic": 1922,
      "87": 1923,
      "lication": 1924,
      "CON": 1925,
      "conda": 1926,
      "architecture": 1927,
      "jetson": 1928,
      "iz": 1929,
      "sr": 1930,
      "FIX": 1931,
      "acle": 1932,
      "SSL": 1933,
      "oracle": 1934,
      "ery": 1935,
      "COR": 1936,
      "82": 1937,
      "jen": 1938,
      "sq": 1939,
      "lite": 1940,
      "rb": 1941,
      "rap": 1942,
      "temp": 1943,
      "REFIX": 1944,
      "gener": 1945,
      "perl": 1946,
      "bull": 1947,
      "bug": 1948,
      "bi": 1949,
      "C_": 1950,
      "libp": 1951,
      "awk": 1952,
      "bullseye": 1953,
      "SS": 1954,
      "libf": 1955,
      "path": 1956,
      "kins": 1957,
      "board": 1958,
      "83": 1959,
      "centos": 1960,
      "ker": 1961,
      "rasp": 1962,
      "application": 1963,
      "hosts": 1964,
      "sl": 1965,
      "tgz": 1966,
      "ado": 1967,
      "45": 1968,
      "AGE": 1969,
      "supervisord": 1970,
      "92": 1971,
      "jenkins": 1972,
      "02": 1973,
      "tx": 1974,
      "sw": 1975,
      "/*;": 1976,
      "crt": 1977,
      "win": 1978,
      "useradd": 1979,
      "redis": 1980,
      "8080": 1981,
      "vim": 1982,
      "AB": 1983,
      "tput": 1984,
      "tomcat": 1985,
      "36": 1986,
      "ER_": 1987,
      "}-": 1988,
      "TI": 1989,
      "clude": 1990,
      "debug": 1991,
      "berry": 1992,
      "query": 1993,
      "ASP": 1994,
      "Y_": 1995,
      "UM": 1996,
      "fore": 1997,
      "ell": 1998,
      "libx": 1999,
      "output": 2000,
      "runtime": 2001,
      "ASPNET": 2002,
      "vf": 2003,
      "head": 2004,
      "gs": 2005,
      "ls": 2006,
      "LE": 2007,
      "ment": 2008,
      "prod": 2009,
      "mar": 2010,
      "ka": 2011,
      "ASPNETCOR": 2012,
      "raspberry": 2013,
      "bl": 2014,
      "bundle": 2015,
      "target": 2016,
      "extra": 2017,
      "As": 2018,
      "mongo": 2019,
      "hado": 2020,
      "BUILD": 2021,
      "St": 2022,
      "arti": 2023,
      "boot": 2024,
      "disable": 2025,
      "hadoop": 2026,
      "06": 2027,
      "BUILD_": 2028,
      "-$(": 2029,
      "enc": 2030,
      "rypt": 2031,
      "dotnet_sha": 2032,
      "Re": 2033,
      "EC": 2034,
      "ice": 2035,
      "Bull": 2036,
      "Bullseye": 2037,
      "ord": 2038,
      "Buster": 2039,
      "UP": 2040,
      "85": 2041,
      "42": 2042,
      "UB": 2043,
      "support": 2044,
      "########": 2045,
      "modules": 2046,
      "mq": 2047,
      "01": 2048,
      "ense": 2049,
      "static": 2050,
      "ost": 2051,
      "DOCK": 2052,
      "DAT": 2053,
      "cor": 2054,
      "fl": 2055,
      "48": 2056,
      "pass": 2057,
      "gosu": 2058,
      "_CER": 2059,
      "mple": 2060,
      "Sta": 2061,
      "bz": 2062,
      "GS": 2063,
      "alse": 2064,
      "trust": 2065,
      "35": 2066,
      "uni": 2067,
      "ks": 2068,
      "mc": 2069,
      "($": 2070,
      "ir": 2071,
      "81": 2072,
      "pec": 2073,
      "ORT": 2074,
      "T_FILE": 2075,
      "installer": 2076,
      "libffi": 2077,
      "ation": 2078,
      "dest": 2079,
      "En": 2080,
      "locale": 2081,
      "include": 2082,
      "SSL_CER": 2083,
      "PHP_": 2084,
      "ING_": 2085,
      "_SH": 2086,
      "ame": 2087,
      "chema": 2088,
      "ran": 2089,
      "tus": 2090,
      "SSL_CERT_FILE": 2091,
      "ms": 2092,
      "_SDK": 2093,
      "drop": 2094,
      "netbase": 2095,
      "libu": 2096,
      "AJ": 2097,
      "ARCH": 2098,
      "schema": 2099,
      "license": 2100,
      "zxf": 2101,
      "maintainer": 2102,
      "DOTNET_VERSION": 2103,
      "Status": 2104,
      "bzip": 2105,
      "false": 2106,
      "dows": 2107,
      "Stretch": 2108,
      "virtual": 2109,
      "PREFIX": 2110,
      "/*.": 2111,
      "aml": 2112,
      "nc": 2113,
      "use": 2114,
      "BAS": 2115,
      "device": 2116,
      "ont": 2117,
      "uch": 2118,
      "line": 2119,
      "EM": 2120,
      "svT": 2121,
      "AJOR": 2122,
      "gd": 2123,
      "plugins": 2124,
      "agle": 2125,
      "KE": 2126,
      "CAT": 2127,
      "ana": 2128,
      "warn": 2129,
      "you": 2130,
      "41": 2131,
      "icu": 2132,
      "admin": 2133,
      "62": 2134,
      "ift": 2135,
      "ower": 2136,
      "ni": 2137,
      "beagle": 2138,
      "windows": 2139,
      "JAVA_VERSION": 2140,
      "project": 2141,
      "_T": 2142,
      "using": 2143,
      "auth": 2144,
      "libuv": 2145,
      "after": 2146,
      "So": 2147,
      "shared": 2148,
      "fd": 2149,
      "Jan": 2150,
      "your": 2151,
      ",/": 2152,
      "nodesource": 2153,
      "_URL": 2154,
      "tils": 2155,
      "fixes": 2156,
      "password": 2157,
      "lock": 2158,
      "form": 2159,
      "tor": 2160,
      "raspberrypi": 2161,
      "sqlite": 2162,
      "xdebug": 2163,
      "SP": 2164,
      "before": 2165,
      "fr": 2166,
      "If": 2167,
      "sshd": 2168,
      "dy": 2169,
      "_SHA": 2170,
      "ible": 2171,
      "changes": 2172,
      "bio": 2173,
      "depre": 2174,
      "life": 2175,
      "stable": 2176,
      "prefix": 2177,
      "_linux": 2178,
      "made": 2179,
      "37": 2180,
      "yp": 2181,
      "1000": 2182,
      "lim": 2183,
      "soon": 2184,
      "uary": 2185,
      "deprecation": 2186,
      "January": 2187,
      "Balen": 2188,
      "Balenalib": 2189,
      "produ": 2190,
      "ger": 2191,
      "PASS": 2192,
      "srv": 2193,
      "book": 2194,
      "andro": 2195,
      "yaml": 2196,
      "RI": 2197,
      ":${": 2198,
      "libs": 2199,
      "shell": 2200,
      "oo": 2201,
      "libxml": 2202,
      "sid": 2203,
      "GI": 2204,
      "der": 2205,
      "ws": 2206,
      "tt": 2207,
      "depend": 2208,
      "IO": 2209,
      "spa": 2210,
      "jpe": 2211,
      "_USER": 2212,
      "ju": 2213,
      "ango": 2214,
      "PRO": 2215,
      "pc": 2216,
      "libicu": 2217,
      "rror": 2218,
      "blob": 2219,
      "dia": 2220,
      "PACK": 2221,
      "butils": 2222,
      "IR": 2223,
      "kub": 2224,
      "usbutils": 2225,
      "_amd": 2226,
      "artik": 2227,
      "android": 2228,
      "ansible": 2229,
      "sol": 2230,
      "acce": 2231,
      "dependenc": 2232,
      "bashrc": 2233,
      "bone": 2234,
      "curity": 2235,
      "755": 2236,
      "AC": 2237,
      "jpeg": 2238,
      "proto": 2239,
      "ports": 2240,
      "spar": 2241,
      "91": 2242,
      "loy": 2243,
      "====": 2244,
      "remove": 2245,
      "beaglebone": 2246,
      "om": 2247,
      "uid": 2248,
      "biocon": 2249,
      "strap": 2250,
      "create": 2251,
      "ier": 2252,
      "sys": 2253,
      "glibc": 2254,
      "ype": 2255,
      "ping": 2256,
      ");": 2257,
      "jo": 2258,
      "nel": 2259,
      "SQ": 2260,
      "ML": 2261,
      "krb": 2262,
      "ING": 2263,
      "LOAD": 2264,
      "**": 2265,
      "sites": 2266,
      "AND": 2267,
      "cmd": 2268,
      "Inst": 2269,
      "_SDK_VERSION": 2270,
      "ci": 2271,
      "cu": 2272,
      "97": 2273,
      "AF": 2274,
      "dotnetcli": 2275,
      "jks": 2276,
      "autocon": 2277,
      "security": 2278,
      "OMM": 2279,
      "templa": 2280,
      "ator": 2281,
      "crosoft": 2282,
      "Sid": 2283,
      "IM": 2284,
      "production": 2285,
      "spark": 2286,
      "autoconf": 2287,
      "ample": 2288,
      "freet": 2289,
      "ner": 2290,
      "OP": 2291,
      "mirror": 2292,
      "yml": 2293,
      "ant": 2294,
      "sts": 2295,
      "bootstrap": 2296,
      "LE_": 2297,
      "ENT": 2298,
      "si": 2299,
      "openssh": 2300,
      "tainers": 2301,
      "proxy": 2302,
      "updown": 2303,
      "ifupdown": 2304,
      "mem": 2305,
      "label": 2306,
      "mongodb": 2307,
      "ize": 2308,
      "Install": 2309,
      "dependencies": 2310,
      "httpd": 2311,
      "ted": 2312,
      "depth": 2313,
      "afka": 2314,
      "graph": 2315,
      "space": 2316,
      "ep": 2317,
      "67": 2318,
      "dr": 2319,
      "col": 2320,
      "x_": 2321,
      "agent": 2322,
      "biocontainers": 2323,
      "gnu": 2324,
      "ension": 2325,
      "generic": 2326,
      "import": 2327,
      "ev": 2328,
      "DOTNET_SDK_VERSION": 2329,
      "ler": 2330,
      "mb": 2331,
      "systemd": 2332,
      "LAGS": 2333,
      "WN": 2334,
      "_RUN": 2335,
      "KEY": 2336,
      "debconf": 2337,
      "_MAJOR": 2338,
      "keystore": 2339,
      "SQL": 2340,
      "deploy": 2341,
      "url": 2342,
      "cons": 2343,
      "emon": 2344,
      "dete": 2345,
      "profile": 2346,
      "ia": 2347,
      "trusty": 2348,
      "checkout": 2349,
      "running": 2350,
      "freetype": 2351,
      "adduser": 2352,
      "daemon": 2353,
      "develop": 2354,
      "boost": 2355,
      "Jessie": 2356,
      "RC": 2357,
      "lat": 2358,
      "kafka": 2359,
      "slim": 2360,
      "sub": 2361,
      "nx": 2362,
      "cron": 2363,
      "_config": 2364,
      "A_": 2365,
      "storepass": 2366,
      "changeit": 2367,
      "07": 2368,
      "APP_": 2369,
      "example": 2370,
      "avier": 2371,
      "whee": 2372,
      "tini": 2373,
      "_CONTAINER": 2374,
      "APP": 2375,
      "backports": 2376,
      "S_VERSION": 2377,
      "endor": 2378,
      "clang": 2379,
      "----": 2380,
      "dum": 2381,
      "patch": 2382,
      "=-": 2383,
      "wa": 2384,
      "zz": 2385,
      "xavier": 2386,
      "Enable": 2387,
      "weba": 2388,
      "tra": 2389,
      "HOS": 2390,
      "ght": 2391,
      "ASPNETCORE_": 2392,
      "LU": 2393,
      "sec": 2394,
      "URLS": 2395,
      "nore": 2396,
      "HAD": 2397,
      "ses": 2398,
      "PORT": 2399,
      "war": 2400,
      "GN": 2401,
      "null": 2402,
      "node_": 2403,
      "HADOO": 2404,
      "/^": 2405,
      "ASPNETCORE_URLS": 2406,
      "_RUNN": 2407,
      "sync": 2408,
      "WI": 2409,
      "trans": 2410,
      "DOWN": 2411,
      "lobal": 2412,
      "solr": 2413,
      "INI": 2414,
      "_ENV": 2415,
      "ort": 2416,
      "proc": 2417,
      "47": 2418,
      "fil": 2419,
      "regi": 2420,
      "adle": 2421,
      "pdo": 2422,
      "ssapi": 2423,
      "global": 2424,
      "GP": 2425,
      "MO": 2426,
      "ssion": 2427,
      "zx": 2428,
      "JAVA_": 2429,
      "ali": 2430,
      "pecl": 2431,
      "detection": 2432,
      "ager": 2433,
      "Gem": 2434,
      "XML": 2435,
      "+:": 2436,
      "UL": 2437,
      "ak": 2438,
      "://+:": 2439,
      "DOWNLOAD": 2440,
      "IN_CONTAINER": 2441,
      "libgssapi": 2442,
      "headless": 2443,
      "Gemfile": 2444,
      "ING_IN_CONTAINER": 2445,
      "DOCKER_": 2446,
      "DOTNET_RUNN": 2447,
      "DOTNET_RUNNING_IN_CONTAINER": 2448,
      "38": 2449,
      "vendor": 2450,
      "zone": 2451,
      "text": 2452,
      "tex": 2453,
      "extension": 2454,
      "stre": 2455,
      "unit": 2456,
      "gradle": 2457,
      "_COMM": 2458,
      "consul": 2459,
      "wi": 2460,
      "buf": 2461,
      "CA": 2462,
      "ange": 2463,
      "qt": 2464,
      "GR": 2465,
      "touch": 2466,
      "map": 2467,
      "Pro": 2468,
      "TE": 2469,
      "iputils": 2470,
      "cv": 2471,
      "mer": 2472,
      "adb": 2473,
      "pyter": 2474,
      "libtool": 2475,
      "dri": 2476,
      "ja": 2477,
      "phar": 2478,
      "ftp": 2479,
      "520": 2480,
      "SO": 2481,
      "stry": 2482,
      "lda": 2483,
      "OPT": 2484,
      "adv": 2485,
      "ble": 2486,
      "ION": 2487,
      "_module": 2488,
      "latform": 2489,
      "red": 2490,
      "unt": 2491,
      "eg": 2492,
      "ocket": 2493,
      "rsa": 2494,
      "jupyter": 2495,
      "bot": 2496,
      "ARK": 2497,
      "ignore": 2498,
      "droid": 2499,
      "EB": 2500,
      "Te": 2501,
      "zoo": 2502,
      "_version": 2503,
      "INSTALL_": 2504,
      "error": 2505,
      "Runtime": 2506,
      "groupadd": 2507,
      "zy": 2508,
      "CHE_": 2509,
      "passwd": 2510,
      "tee": 2511,
      "rib": 2512,
      "public": 2513,
      "protobuf": 2514,
      "abbit": 2515,
      "ldap": 2516,
      "ming": 2517,
      "ANDRO": 2518,
      "PHP": 2519,
      "cfg": 2520,
      "400": 2521,
      "rew": 2522,
      "apro": 2523,
      "AK": 2524,
      "gick": 2525,
      "registry": 2526,
      "val": 2527,
      "HOST": 2528,
      "ched": 2529,
      "nu": 2530,
      "xv": 2531,
      "ASPNETCORE_VERSION": 2532,
      "LC_": 2533,
      "avail": 2534,
      "FLAGS": 2535,
      "coin": 2536,
      "microsoft": 2537,
      "chro": 2538,
      "ERVER": 2539,
      "ori": 2540,
      "GO_": 2541,
      "bt": 2542,
      "dart": 2543,
      "sL": 2544,
      "mat": 2545,
      "orange": 2546,
      "available": 2547,
      "qem": 2548,
      "rest": 2549,
      "Ma": 2550,
      "ken": 2551,
      "nit": 2552,
      "tk": 2553,
      "pel": 2554,
      "kee": 2555,
      "SPARK": 2556,
      "ings": 2557,
      "_CONFI": 2558,
      "odroid": 2559,
      "que": 2560,
      "PACKAGE": 2561,
      "DA": 2562,
      "star": 2563,
      "conn": 2564,
      "logs": 2565,
      "FOR": 2566,
      "localhost": 2567,
      "kmod": 2568,
      "DEP": 2569,
      "ens": 2570,
      "shift": 2571,
      "Co": 2572,
      "ded": 2573,
      "bind": 2574,
      "X_": 2575,
      "verse": 2576,
      "cab": 2577,
      "face": 2578,
      "contrib": 2579,
      "cn": 2580,
      "ey": 2581,
      "hub": 2582,
      "libjpeg": 2583,
      "black": 2584,
      "plus": 2585,
      "MY": 2586,
      "198": 2587,
      "stream": 2588,
      "stash": 2589,
      "va": 2590,
      "quiet": 2591,
      "453": 2592,
      "LC_ALL": 2593,
      "ED": 2594,
      "play": 2595,
      "enabled": 2596,
      "licy": 2597,
      "containers": 2598,
      "epel": 2599,
      "REPO": 2600,
      "rabbit": 2601,
      "keeper": 2602,
      "warnin": 2603,
      "Web": 2604,
      "ribu": 2605,
      "mcrypt": 2606,
      "AM": 2607,
      "devkit": 2608,
      "rect": 2609,
      "_NAME": 2610,
      "3000": 2611,
      "slt": 2612,
      "################": 2613,
      "IP": 2614,
      "automake": 2615,
      "ki": 2616,
      "sudoers": 2617,
      "onts": 2618,
      "App": 2619,
      "TER": 2620,
      "http_": 2621,
      "openshift": 2622,
      "APT": 2623,
      "fu": 2624,
      "bs": 2625,
      "br": 2626,
      "SE": 2627,
      "ave": 2628,
      "unch": 2629,
      "kernel": 2630,
      "aries": 2631,
      "node_modules": 2632,
      "OT": 2633,
      "COD": 2634,
      "libcurl": 2635,
      "_COMMIT": 2636,
      "TOM": 2637,
      "locales": 2638,
      "ov": 2639,
      "rabbitmq": 2640,
      "SUM": 2641,
      "REL": 2642,
      "mus": 2643,
      "copy": 2644,
      "logstash": 2645,
      "SRC": 2646,
      "sSL": 2647,
      "tags": 2648,
      "OPEN": 2649,
      "scription": 2650,
      "flow": 2651,
      "ARY_": 2652,
      "VI": 2653,
      "skip": 2654,
      "platform": 2655,
      "710": 2656,
      "manager": 2657,
      "PE": 2658,
      "BASE_": 2659,
      "help": 2660,
      "HE": 2661,
      "util": 2662,
      "BIN": 2663,
      "ple": 2664,
      "libxslt": 2665,
      "od": 2666,
      "Con": 2667,
      "TAG": 2668,
      "/#": 2669,
      "CE_": 2670,
      "ET_": 2671,
      "500": 2672,
      "libl": 2673,
      "DOCKER": 2674,
      "_s": 2675,
      "nt": 2676,
      "bower": 2677,
      "green": 2678,
      "connect": 2679,
      "libpng": 2680,
      "unity": 2681,
      "csproj": 2682,
      "APA": 2683,
      "SOL": 2684,
      "CMAK": 2685,
      "cha": 2686,
      "rite": 2687,
      "ros": 2688,
      "luent": 2689,
      "990": 2690,
      "lua": 2691,
      "910": 2692,
      "launch": 2693,
      "STR": 2694,
      "WD": 2695,
      "nvi": 2696,
      "squ": 2697,
      "gid": 2698,
      "ctl": 2699,
      "jq": 2700,
      "UID": 2701,
      "policy": 2702,
      "ala": 2703,
      "zookeeper": 2704,
      "not": 2705,
      "ffe": 2706,
      "sim": 2707,
      "nvidia": 2708,
      "distribu": 2709,
      "GRO": 2710,
      "lass": 2711,
      "template": 2712,
      "pipe": 2713,
      "llvm": 2714,
      "BA": 2715,
      "A_HOME": 2716,
      "_PATH": 2717,
      "ds": 2718,
      "car": 2719,
      "ush": 2720,
      "stand": 2721,
      "ibana": 2722,
      "backup": 2723,
      "_init": 2724,
      "mx": 2725,
      "ENCOD": 2726,
      "MYSQL": 2727,
      "pps": 2728,
      "exit": 2729,
      "HT": 2730,
      "C_VERSION": 2731,
      "ENCODING": 2732,
      "mm": 2733,
      "workspace": 2734,
      "wsgi": 2735,
      "eng": 2736,
      "173": 2737,
      "Y_VERSION": 2738,
      "cap": 2739,
      "ENAB": 2740,
      "tin": 2741,
      "PM": 2742,
      "yq": 2743,
      "mpt": 2744,
      "kibana": 2745,
      "JAVA_VERSION_MAJOR": 2746,
      "opcache": 2747,
      "842": 2748,
      "PYTHONIO": 2749,
      "APACHE_": 2750,
      "PYTHONIOENCODING": 2751,
      "LIBR": 2752,
      "CMAKE_": 2753,
      "VM": 2754,
      "cached": 2755,
      "libn": 2756,
      "som": 2757,
      "ccache": 2758,
      "libpq": 2759,
      "eaa": 2760,
      "mpeg": 2761,
      "nvm": 2762,
      "ist": 2763,
      "ranch": 2764,
      "pdo_": 2765,
      "ulti": 2766,
      "build_": 2767,
      "nitro": 2768,
      "orm": 2769,
      "DATA": 2770,
      "ose": 2771,
      "std": 2772,
      "ASE": 2773,
      "team": 2774,
      "aproxy": 2775,
      "dde": 2776,
      "string": 2777,
      "nitrogen": 2778,
      "hk": 2779,
      "libboost": 2780,
      "haproxy": 2781,
      "over": 2782,
      "TOR": 2783,
      "bis": 2784,
      "tur": 2785,
      "TO": 2786,
      "by": 2787,
      "WORD": 2788,
      "bar": 2789,
      "pet": 2790,
      "Ser": 2791,
      "memcached": 2792,
      "ject": 2793,
      "cy": 2794,
      "mini": 2795,
      "driver": 2796,
      "306": 2797,
      "T_VERSION": 2798,
      "lags": 2799,
      "webapps": 2800,
      "NOR": 2801,
      "ffmpeg": 2802,
      "tz": 2803,
      "comple": 2804,
      "mes": 2805,
      "637": 2806,
      "rh": 2807,
      "biodocker": 2808,
      "_MO": 2809,
      "156": 2810,
      "ddb": 2811,
      "052": 2812,
      "ug": 2813,
      "mvn": 2814,
      "275": 2815,
      "100": 2816,
      "RELE": 2817,
      "scra": 2818,
      "sur": 2819,
      "manage": 2820,
      "erlang": 2821,
      "right": 2822,
      "resource": 2823,
      "new": 2824,
      "lot": 2825,
      "chrome": 2826,
      "gate": 2827,
      "wrap": 2828,
      "armor": 2829,
      "login": 2830,
      "remo": 2831,
      "community": 2832,
      "Ro": 2833,
      "sna": 2834,
      "dio": 2835,
      "neo": 2836,
      "services": 2837,
      "fast": 2838,
      "zel": 2839,
      "SOLR": 2840,
      "lay": 2841,
      "bde": 2842,
      "Lo": 2843,
      "AGE_": 2844,
      "CR": 2845,
      "lex": 2846,
      "UND": 2847,
      "tions": 2848,
      "ko": 2849,
      "cfb": 2850,
      "curses": 2851,
      "dj": 2852,
      "200": 2853,
      "readline": 2854,
      "_bin": 2855,
      "XX": 2856,
      "IMAGE": 2857,
      "ANDROID": 2858,
      "rectory": 2859,
      "NGIN": 2860,
      "bitcoin": 2861,
      "BR": 2862,
      "ES": 2863,
      "bca": 2864,
      "WEB": 2865,
      "443": 2866,
      "fire": 2867,
      "description": 2868,
      "eee": 2869,
      "Server": 2870,
      ",-": 2871,
      "option": 2872,
      "820": 2873,
      "multi": 2874,
      "boss": 2875,
      "prompt": 2876,
      "154": 2877,
      "musl": 2878,
      "_ROOT": 2879,
      ">/": 2880,
      "intel": 2881,
      "tebook": 2882,
      "sp": 2883,
      "176": 2884,
      "zer": 2885,
      "def": 2886,
      "ai": 2887,
      "ARGET": 2888,
      "FILE_": 2889,
      "GLIB": 2890,
      "8000": 2891,
      "fluent": 2892,
      "tings": 2893,
      "tcp": 2894,
      "magick": 2895,
      "INOR": 2896,
      "warning": 2897,
      "libfreetype": 2898,
      "LAT": 2899,
      "fra": 2900,
      "bundler": 2901,
      "ft": 2902,
      "pri": 2903,
      "ONBUILD": 2904,
      "aspnetcore_sha": 2905,
      "sonar": 2906,
      "access": 2907,
      "allow": 2908,
      "CRI": 2909,
      "ename": 2910,
      "rev": 2911,
      "_PORT": 2912,
      "GIT": 2913,
      "139": 2914,
      "811": 2915,
      "API": 2916,
      "lint": 2917,
      "ute": 2918,
      "BIT": 2919,
      "hy": 2920,
      "ed_": 2921,
      "gcr": 2922,
      "abb": 2923,
      "KIN": 2924,
      "m_": 2925,
      "pat": 2926,
      "alone": 2927,
      "COM": 2928,
      "Service": 2929,
      "stra": 2930,
      "ARY_PATH": 2931,
      "LL": 2932,
      "enmod": 2933,
      "G_VERSION": 2934,
      "hash": 2935,
      "BASE": 2936,
      "LD_": 2937,
      "cpp": 2938,
      "~/": 2939,
      "viron": 2940,
      "sci": 2941,
      "xbuild": 2942,
      "settings": 2943,
      "PASSWORD": 2944,
      "fx": 2945,
      "caa": 2946,
      "ful": 2947,
      "fonts": 2948,
      "startup": 2949,
      "pac": 2950,
      "spec": 2951,
      "hkp": 2952,
      "args": 2953,
      "Sy": 2954,
      "okie": 2955,
      "opencontainers": 2956,
      "050": 2957,
      "ark": 2958,
      "gzip": 2959,
      "_PREFIX": 2960,
      "mount": 2961,
      "//": 2962,
      "LIBRARY_PATH": 2963,
      "========": 2964,
      "_DOWNLOAD": 2965,
      "DOC": 2966,
      "ress": 2967,
      "cert": 2968,
      "jboss": 2969,
      "live": 2970,
      "NU": 2971,
      "781": 2972,
      "KS": 2973,
      "cod": 2974,
      "standalone": 2975,
      "keytool": 2976,
      "ze": 2977,
      "hat": 2978,
      "vel": 2979,
      "ally": 2980,
      "fuzz": 2981,
      "AVEN": 2982,
      "cnf": 2983,
      "ns": 2984,
      "ctor": 2985,
      "cuda": 2986,
      "TOMCAT": 2987,
      "<<": 2988,
      "django": 2989,
      "nal": 2990,
      "ANCH": 2991,
      "mono": 2992,
      "LOW": 2993,
      "num": 2994,
      "timezone": 2995,
      "graf": 2996,
      "pang": 2997,
      "my_init": 2998,
      "without": 2999,
      "pgsql": 3000,
      "gettext": 3001,
      "pangyp": 3002,
      "notebook": 3003,
      "transport": 3004,
      "TARGET": 3005,
      "ew": 3006,
      "TEST": 3007,
      "JEN": 3008,
      "ob": 3009,
      "NODE_ENV": 3010,
      "oton": 3011,
      "postinst": 3012,
      "headers": 3013,
      "parall": 3014,
      "xe": 3015,
      "};": 3016,
      "front": 3017,
      "sig": 3018,
      "pw": 3019,
      "CHE": 3020,
      "sS": 3021,
      "AFK": 3022,
      "mari": 3023,
      "/;": 3024,
      "forge": 3025,
      "056": 3026,
      "gyp": 3027,
      "noprompt": 3028,
      "mark": 3029,
      "MAVEN": 3030,
      "OPTS": 3031,
      "HTT": 3032,
      "fac": 3033,
      "Build": 3034,
      "setup_": 3035,
      "scratch": 3036,
      "CRIPT": 3037,
      "JENKIN": 3038,
      "photon": 3039,
      "ASUM": 3040,
      "890": 3041,
      "remote": 3042,
      "SWI": 3043,
      "dom": 3044,
      "ced": 3045,
      "database": 3046,
      "PHP_VERSION": 3047,
      "author": 3048,
      "sbt": 3049,
      "compile": 3050,
      "DEPS": 3051,
      "cle": 3052,
      "selinux": 3053,
      "RUB": 3054,
      "rust": 3055,
      "CATAL": 3056,
      "gh": 3057,
      "5000": 3058,
      "FLOW": 3059,
      "KAFK": 3060,
      "848": 3061,
      "xx": 3062,
      "rsync": 3063,
      "File": 3064,
      "ask": 3065,
      "ffc": 3066,
      "session": 3067,
      "binaries": 3068,
      "tzdata": 3069,
      "mariadb": 3070,
      "A_VERSION": 3071,
      "730": 3072,
      "hdf": 3073,
      "copyright": 3074,
      "crypt": 3075,
      "CATALIN": 3076,
      "SHASUM": 3077,
      "DD": 3078,
      "geo": 3079,
      "sshd_config": 3080,
      "_MINOR": 3081,
      "firm": 3082,
      "SHASUMS": 3083,
      "wheezy": 3084,
      "xvf": 3085,
      "sel": 3086,
      "pan": 3087,
      "ckey": 3088,
      "LD_LIBRARY_PATH": 3089,
      "colle": 3090,
      "174": 3091,
      "[./": 3092,
      "intl": 3093,
      "714": 3094,
      "rw": 3095,
      "vironment": 3096,
      "abf": 3097,
      "510": 3098,
      "JKS": 3099,
      "cgi": 3100,
      "event": 3101,
      "ecb": 3102,
      "storetype": 3103,
      "DCMAKE_": 3104,
      "s_": 3105,
      "getcomposer": 3106,
      "importkeystore": 3107,
      "SNA": 3108,
      "srcstorepass": 3109,
      "srckey": 3110,
      "destkeystore": 3111,
      "deststorepass": 3112,
      "srckeystore": 3113,
      "deststoretype": 3114,
      "212": 3115,
      "PASSWD": 3116,
      "YPE": 3117,
      "cass": 3118,
      "ories": 3119,
      "779": 3120,
      "RELEASE": 3121,
      "rvm": 3122,
      "edc": 3123,
      "dbc": 3124,
      "graphite": 3125,
      "abd": 3126,
      "secure": 3127,
      "_key": 3128,
      "andra": 3129,
      "GID": 3130,
      "rt": 3131,
      "pacman": 3132,
      "couch": 3133,
      "Pa": 3134,
      "surface": 3135,
      "own": 3136,
      "797": 3137,
      "X_VERSION": 3138,
      "qy": 3139,
      "509": 3140,
      "swift": 3141,
      "xargs": 3142,
      "ontconfig": 3143,
      "nuc": 3144,
      "952": 3145,
      "repositories": 3146,
      "d_": 3147,
      "_MODE": 3148,
      "branch": 3149,
      "libsqlite": 3150,
      "001": 3151,
      "vid": 3152,
      "format": 3153,
      "Ch": 3154,
      "tit": 3155,
      "completion": 3156,
      "ste": 3157,
      "sam": 3158,
      "BRANCH": 3159,
      "ATCH": 3160,
      "787": 3161,
      "nanop": 3162,
      "corp": 3163,
      "filter": 3164,
      "OFF": 3165,
      "DU": 3166,
      "_USE_": 3167,
      "FORM": 3168,
      "erne": 3169,
      "pup": 3170,
      "bfe": 3171,
      "Release": 3172,
      "TZ": 3173,
      "182": 3174,
      "cassandra": 3175,
      "cea": 3176,
      "phan": 3177,
      "9000": 3178,
      "phpunit": 3179,
      "emmc": 3180,
      "GNUP": 3181,
      "coding": 3182,
      "itor": 3183,
      "fSL": 3184,
      "Ver": 3185,
      "ric": 3186,
      "power": 3187,
      "inja": 3188,
      "theus": 3189,
      "ops": 3190,
      "lan": 3191,
      "_file": 3192,
      "GNUPG": 3193,
      "INF": 3194,
      "ernetes": 3195,
      "distribution": 3196,
      "etcd": 3197,
      "321": 3198,
      "vp": 3199,
      "compose": 3200,
      "Per": 3201,
      "metheus": 3202,
      "templates": 3203,
      "fly": 3204,
      "apps": 3205,
      "mbstring": 3206,
      "cebd": 3207,
      "SNAP": 3208,
      "dce": 3209,
      "230": 3210,
      "redhat": 3211,
      "uwsgi": 3212,
      "IN_": 3213,
      "directory": 3214,
      "_CONF": 3215,
      "efe": 3216,
      "_rsa": 3217,
      "ast": 3218,
      "IB": 3219,
      "cpan": 3220,
      "332": 3221,
      "PK": 3222,
      "GNUPGHOME": 3223,
      "075": 3224,
      "GET_": 3225,
      "NOPASSWD": 3226,
      "max": 3227,
      "vate": 3228,
      "corn": 3229,
      "775": 3230,
      "MA": 3231,
      "bazel": 3232,
      "sole": 3233,
      "rent": 3234,
      "users": 3235,
      "ocks": 3236,
      "kubernetes": 3237,
      "AIR": 3238,
      "fy": 3239,
      "...": 3240,
      "Sk": 3241,
      "LOG_": 3242,
      "}/${": 3243,
      "examples": 3244,
      "chain": 3245,
      "370": 3246,
      "pad": 3247,
      "ship": 3248,
      "table": 3249,
      "ensor": 3250,
      "%%": 3251,
      "=(": 3252,
      "Net": 3253,
      "venv": 3254,
      "qemu": 3255,
      "sm": 3256,
      "binutils": 3257,
      "qqy": 3258,
      "../": 3259,
      "pd": 3260,
      "917": 3261,
      "564": 3262,
      "dfc": 3263,
      "oss": 3264,
      ">&": 3265,
      "prometheus": 3266,
      "666": 3267,
      "HADOOP_": 3268,
      "++-": 3269,
      "bcb": 3270,
      "S_HOME": 3271,
      "phantom": 3272,
      "Mi": 3273,
      "hu": 3274,
      "moz": 3275,
      "network": 3276,
      "lsb": 3277,
      "max_": 3278,
      "cfd": 3279,
      "CONF": 3280,
      "ong": 3281,
      "NI": 3282,
      "LOG": 3283,
      "043": 3284,
      "media": 3285,
      "bison": 3286,
      "fin": 3287,
      "SON": 3288,
      "tl": 3289,
      ":-": 3290,
      "bad": 3291,
      "LANGU": 3292,
      "530": 3293,
      "vent": 3294,
      "du": 3295,
      "put": 3296,
      "}-${": 3297,
      "frontend": 3298,
      "mance": 3299,
      "press": 3300,
      "kitra": 3301,
      "AIRFLOW": 3302,
      "formance": 3303,
      "body": 3304,
      "IC": 3305,
      "tinker": 3306,
      "sn": 3307,
      "fail": 3308,
      "hum": 3309,
      "296": 3310,
      "PHP_INI": 3311,
      "dh": 3312,
      "ENABLE": 3313,
      "mysq": 3314,
      "O_": 3315,
      "sample": 3316,
      "bfc": 3317,
      "resources": 3318,
      "lish": 3319,
      "pache": 3320,
      "numpy": 3321,
      "971": 3322,
      "Arch": 3323,
      "zsh": 3324,
      "asus": 3325,
      "gateway": 3326,
      "WATCH": 3327,
      "LATFORM": 3328,
      "nl": 3329,
      "puppet": 3330,
      "FS": 3331,
      "kno": 3332,
      "RA": 3333,
      "texlive": 3334,
      "extract": 3335,
      "unicorn": 3336,
      "dumb": 3337,
      "grafana": 3338,
      "__": 3339,
      "socket": 3340,
      "low": 3341,
      "try": 3342,
      "LANGUAGE": 3343,
      "PHP_INI_DIR": 3344,
      "compat": 3345,
      "sil": 3346,
      "aly": 3347,
      "opencv": 3348,
      "chpasswd": 3349,
      "syslog": 3350,
      "contro": 3351,
      "ROR": 3352,
      "udp": 3353,
      "ects": 3354,
      "mirrors": 3355,
      "gram": 3356,
      "unix": 3357,
      "pid": 3358,
      "ella": 3359,
      "cfe": 3360,
      "performance": 3361,
      "****": 3362,
      "800": 3363,
      "ER_VERSION": 3364,
      "engine": 3365,
      "usion": 3366,
      "wheel": 3367,
      "_host": 3368,
      "abc": 3369,
      "702": 3370,
      "snap": 3371,
      "CATALINA_HOME": 3372,
      "runner": 3373,
      "692": 3374,
      "wrapper": 3375,
      "quad": 3376,
      "Use": 3377,
      "772": 3378,
      "_SERVER": 3379,
      "cub": 3380,
      "ban": 3381,
      "fsSL": 3382,
      "dg": 3383,
      "ox": 3384,
      "er_": 3385,
      "587": 3386,
      ".*/": 3387,
      "--------": 3388,
      "universe": 3389,
      "alis": 3390,
      "wild": 3391,
      "NUGET_": 3392,
      "shu": 3393,
      "_linux_amd": 3394,
      "cust": 3395,
      "model": 3396,
      "Skip": 3397,
      "SHOT": 3398,
      "NUGET_XML": 3399,
      "FT_": 3400,
      "je": 3401,
      "within": 3402,
      "_CONFIG": 3403,
      "DOC_MODE": 3404,
      "NUGET_XMLDOC_MODE": 3405,
      "grpc": 3406,
      "testing": 3407,
      "az": 3408,
      "ky": 3409,
      "zmq": 3410,
      "POLL": 3411,
      "GA": 3412,
      "simple": 3413,
      "libri": 3414,
      "webu": 3415,
      "address": 3416,
      "cabal": 3417,
      "574": 3418,
      "reque": 3419,
      "useful": 3420,
      "gress": 3421,
      "S_DIR": 3422,
      "APP_HOME": 3423,
      "MAJOR": 3424,
      "807": 3425,
      "bbd": 3426,
      "humming": 3427,
      "docum": 3428,
      "ree": 3429,
      "679": 3430,
      "oper": 3431,
      "compil": 3432,
      "select": 3433,
      "3288": 3434,
      "extraction": 3435,
      "jetty": 3436,
      "DATE": 3437,
      "vab": 3438,
      "SNAPSHOT": 3439,
      "zero": 3440,
      "parallella": 3441,
      "hummingboard": 3442,
      "fer": 3443,
      "colibri": 3444,
      "fad": 3445,
      "revpi": 3446,
      "GLIBC_VERSION": 3447,
      "apalis": 3448,
      "afb": 3449,
      "worm": 3450,
      "128": 3451,
      "Core": 3452,
      "scan": 3453,
      "cdb": 3454,
      "POLLING_": 3455,
      "ium": 3456,
      "FILE_WATCH": 3457,
      "phantomjs": 3458,
      "POLLING_FILE_WATCH": 3459,
      "POLLING_FILE_WATCHER": 3460,
      "DOTNET_USE_": 3461,
      "DOTNET_USE_POLLING_FILE_WATCHER": 3462,
      "anon": 3463,
      "bee": 3464,
      "mesos": 3465,
      "dba": 3466,
      "rder": 3467,
      "helps": 3468,
      "738": 3469,
      "IV": 3470,
      "CONFI": 3471,
      "generally": 3472,
      "7715": 3473,
      "308": 3474,
      "run_": 3475,
      "environment": 3476,
      "flux": 3477,
      "developer": 3478,
      "abi": 3479,
      "324": 3480,
      "xvz": 3481,
      "An": 3482,
      "EXTR": 3483,
      "ogen": 3484,
      "eu": 3485,
      "apparmor": 3486,
      "_PK": 3487,
      "development": 3488,
      "630": 3489,
      "input": 3490,
      "1994": 3491,
      "meta": 3492,
      "wait": 3493,
      "233": 3494,
      "Tests": 3495,
      "noarch": 3496,
      "L_": 3497,
      "rst": 3498,
      "sLO": 3499,
      "SU": 3500,
      "localtime": 3501,
      "tensor": 3502,
      "GROUP": 3503,
      "cher": 3504,
      "backend": 3505,
      "cae": 3506,
      "READ": 3507,
      "pdo_mysql": 3508,
      "118": 3509,
      "Host": 3510,
      "_CONFIG_": 3511,
      "ass": 3512,
      "MQ": 3513,
      "562": 3514,
      "abe": 3515,
      "alt": 3516,
      "miniconda": 3517,
      "listen": 3518,
      "confd": 3519,
      "999": 3520,
      "usermod": 3521,
      "ENABLED": 3522,
      "ulp": 3523,
      "[]": 3524,
      "ED_": 3525,
      "ENT_": 3526,
      "dcf": 3527,
      "mktemp": 3528,
      "turbo": 3529,
      "_VER": 3530,
      "pear": 3531,
      "launchpad": 3532,
      "else": 3533,
      "Version": 3534,
      "stat": 3535,
      "console": 3536,
      "REF": 3537,
      "830": 3538,
      "JAVA_VERSION_MINOR": 3539,
      "jshell": 3540,
      "cef": 3541,
      "scala": 3542,
      "zxvf": 3543,
      "free": 3544,
      "ris": 3545,
      "rbenv": 3546,
      "575": 3547,
      "546": 3548,
      "bro": 3549,
      "aec": 3550,
      "405": 3551,
      "GIS": 3552,
      "autogen": 3553,
      "wan": 3554,
      "ffd": 3555,
      "kube": 3556,
      "127": 3557,
      "flex": 3558,
      ")/": 3559,
      "ade": 3560,
      "858": 3561,
      "LIN": 3562,
      "curs": 3563,
      "dump": 3564,
      "496": 3565,
      "initdb": 3566,
      "qemux": 3567,
      "COMPOS": 3568,
      "mework": 3569,
      "big": 3570,
      "acti": 3571,
      "upload": 3572,
      "USER_": 3573,
      "BO": 3574,
      "ya": 3575,
      "140": 3576,
      "publish": 3577,
      "base_": 3578,
      "997": 3579,
      "SUL": 3580,
      "brew": 3581,
      "DEBU": 3582,
      "ORI": 3583,
      "uk": 3584,
      "ga": 3585,
      "ACTI": 3586,
      "clear": 3587,
      "mine": 3588,
      "dash": 3589,
      "_CLI": 3590,
      "seccomp": 3591,
      "kenship": 3592,
      "ance": 3593,
      "tri": 3594,
      "sort": 3595,
      "gunicorn": 3596,
      "563": 3597,
      "363": 3598,
      "ground": 3599,
      "MON": 3600,
      "AME": 3601,
      "BF": 3602,
      "ibm": 3603,
      "known": 3604,
      "id_rsa": 3605,
      "math": 3606,
      "illi": 3607,
      "CU": 3608,
      "tensorflow": 3609,
      "Root": 3610,
      "alias": 3611,
      "802": 3612,
      "iro": 3613,
      "vo": 3614,
      "ios": 3615,
      "worker": 3616,
      "853": 3617,
      "autoc": 3618,
      "mary": 3619,
      "uration": 3620,
      "exe": 3621,
      "addgroup": 3622,
      "cm": 3623,
      "pse": 3624,
      ";;": 3625,
      "SERVER": 3626,
      "lix": 3627,
      "315": 3628,
      "cran": 3629,
      "_build": 3630,
      "fda": 3631,
      "plone": 3632,
      "rant": 3633,
      "bda": 3634,
      "CAL": 3635,
      "GOLANG": 3636,
      "523": 3637,
      "yqq": 3638,
      "nocon": 3639,
      "WITH": 3640,
      "[[": 3641,
      "TIME": 3642,
      "drush": 3643,
      "extensions": 3644,
      "noconfirm": 3645,
      "719": 3646,
      "AU": 3647,
      "1001": 3648,
      "ise": 3649,
      "gu": 3650,
      "libreadline": 3651,
      "HTTP": 3652,
      "218": 3653,
      "ANDROID_HOME": 3654,
      "icon": 3655,
      "orient": 3656,
      "TERM": 3657,
      "view": 3658,
      "miss": 3659,
      "labs": 3660,
      "efa": 3661,
      "449": 3662,
      "DEB": 3663,
      "TAGS": 3664,
      "orientdb": 3665,
      "mercur": 3666,
      "udio": 3667,
      "JEC": 3668,
      "custom": 3669,
      "589": 3670,
      "word": 3671,
      "bed": 3672,
      "compiler": 3673,
      "336": 3674,
      "toml": 3675,
      "pem": 3676,
      "imagemagick": 3677,
      "CONSUL": 3678,
      "2044": 3679,
      "couchdb": 3680,
      "abbi": 3681,
      "qO": 3682,
      "gitlab": 3683,
      "stdout": 3684,
      "ACTIV": 3685,
      "}:${": 3686,
      "_SO": 3687,
      "mult": 3688,
      "Sdk": 3689,
      "tics": 3690,
      "acc": 3691,
      "TYPE": 3692,
      "_x": 3693,
      "686": 3694,
      "_re": 3695,
      "baseimage": 3696,
      "POST": 3697,
      "alth": 3698,
      "origin": 3699,
      "pyenv": 3700,
      "beff": 3701,
      "FT": 3702,
      "810": 3703,
      "aio": 3704,
      "ELL": 3705,
      "mage": 3706,
      "S_PATH": 3707,
      "filename": 3708,
      "aske": 3709,
      "082": 3710,
      "certificate": 3711,
      "sing": 3712,
      "summary": 3713,
      "ZE": 3714,
      "hack": 3715,
      "demo": 3716,
      "265": 3717,
      "210": 3718,
      "toolchain": 3719,
      "agrant": 3720,
      "dit": 3721,
      "eth": 3722,
      "FD": 3723,
      "DATAB": 3724,
      "460": 3725,
      "Order": 3726,
      "shin": 3727,
      "CHECK": 3728,
      "route": 3729,
      "923": 3730,
      "_FILE": 3731,
      "six": 3732,
      "CI": 3733,
      "ight": 3734,
      "rdoc": 3735,
      "autoclean": 3736,
      "binary": 3737,
      "scl": 3738,
      "700": 3739,
      "ron": 3740,
      "vagrant": 3741,
      "ging": 3742,
      "zabbi": 3743,
      "533": 3744,
      "runt": 3745,
      "webupd": 3746,
      "sourceforge": 3747,
      "projects": 3748,
      "TION": 3749,
      "HADOOP": 3750,
      "libncurses": 3751,
      "BITCO": 3752,
      "660": 3753,
      "zen": 3754,
      "124": 3755,
      "gulp": 3756,
      "rd": 3757,
      "thread": 3758,
      "mercurial": 3759,
      "ope": 3760,
      "sle": 3761,
      "327": 3762,
      "cra": 3763,
      "hd": 3764,
      "188": 3765,
      "183": 3766,
      "OUT": 3767,
      "XY": 3768,
      "Remove": 3769,
      "991": 3770,
      "illa": 3771,
      "phusion": 3772,
      "shutit": 3773,
      "VC": 3774,
      "vision": 3775,
      "235": 3776,
      "sph": 3777,
      "secre": 3778,
      "CODE": 3779,
      "progress": 3780,
      "cluster": 3781,
      "nobody": 3782,
      "libre": 3783,
      "770": 3784,
      "333": 3785,
      "290": 3786,
      "helper": 3787,
      "SWIFT_": 3788,
      "tran": 3789,
      "ix": 3790,
      "ara": 3791,
      "monitor": 3792,
      "fluentd": 3793,
      "System": 3794,
      "mesa": 3795,
      "let": 3796,
      "spr": 3797,
      "libevent": 3798,
      "ERVI": 3799,
      "timeout": 3800,
      "`#": 3801,
      "ppc": 3802,
      "rewrite": 3803,
      "tianon": 3804,
      "Services": 3805,
      "rk": 3806,
      "wants": 3807,
      "erm": 3808,
      "pic": 3809,
      "724": 3810,
      "ectl": 3811,
      "accept": 3812,
      "silent": 3813,
      "432": 3814,
      "364": 3815,
      "655": 3816,
      "prot": 3817,
      "7515": 3818,
      "webapp": 3819,
      "wp": 3820,
      "_path": 3821,
      "stop": 3822,
      "terra": 3823,
      "otp": 3824,
      "kubectl": 3825,
      "130": 3826,
      "analy": 3827,
      "mysqlclient": 3828,
      "asl": 3829,
      "143": 3830,
      "GIN": 3831,
      "pcre": 3832,
      "opam": 3833,
      "495": 3834,
      "566": 3835,
      "BUILDTAGS": 3836,
      "mcr": 3837,
      "gems": 3838,
      "operator": 3839,
      "_RE": 3840,
      "TM": 3841,
      "ru": 3842,
      "alpinelinux": 3843,
      "454": 3844,
      "ccd": 3845,
      "recurs": 3846,
      "mingw": 3847,
      "fun": 3848,
      "influx": 3849,
      "897": 3850,
      "459": 3851,
      "PL": 3852,
      "Microsoft": 3853,
      "Ordering": 3854,
      "608": 3855,
      "show": 3856,
      "3306": 3857,
      "ina": 3858,
      "light": 3859,
      "rs": 3860,
      "ons": 3861,
      "654": 3862,
      "USERNAME": 3863,
      "zoneinfo": 3864,
      "fontconfig": 3865,
      "lar": 3866,
      "FRE": 3867,
      "xzvf": 3868,
      "D_VERSION": 3869,
      "fox": 3870,
      "pkgconfig": 3871,
      "mysqld": 3872,
      "IO_": 3873,
      "257": 3874,
      "888": 3875,
      "dockerfile": 3876,
      "ES_": 3877,
      "grunt": 3878,
      "_cv": 3879,
      "vcs": 3880,
      "recursive": 3881,
      "xvzf": 3882,
      "health": 3883,
      "GPG_": 3884,
      "SHELL": 3885,
      "DIST": 3886,
      "CROS": 3887,
      "ben": 3888,
      "INSTALL_DIR": 3889,
      "583": 3890,
      "authoriz": 3891,
      "978": 3892,
      "AW": 3893,
      "ecli": 3894,
      "Bo": 3895,
      "ID_": 3896,
      "ORIENT": 3897,
      "BC": 3898,
      "GIT_": 3899,
      "rflow": 3900,
      "LOCAL": 3901,
      "FE": 3902,
      "ume": 3903,
      "2015": 3904,
      "242": 3905,
      "913": 3906,
      "K_": 3907,
      "GISTRY": 3908,
      "framework": 3909,
      "CLO": 3910,
      "053": 3911,
      "ASE_": 3912,
      "resty": 3913,
      "-*.": 3914,
      "aad": 3915,
      "ipt": 3916,
      "alog": 3917,
      "ttng": 3918,
      "air": 3919,
      "ORIENTDB": 3920,
      "bon": 3921,
      "dele": 3922,
      "477": 3923,
      "cfc": 3924,
      "can": 3925,
      "trusted": 3926,
      "ony": 3927,
      "start_": 3928,
      "SOUR": 3929,
      "sen": 3930,
      "td": 3931,
      "disabled": 3932,
      "procps": 3933,
      "MYSQL_": 3934,
      "SPA": 3935,
      "ata": 3936,
      "ables": 3937,
      "liblttng": 3938,
      "ROOTFS": 3939,
      "ender": 3940,
      "stats": 3941,
      "tango": 3942,
      "beta": 3943,
      "SHA": 3944,
      "reconfigure": 3945,
      "builds": 3946,
      "IRROR": 3947,
      "libyaml": 3948,
      "libmysqlclient": 3949,
      "Permit": 3950,
      "GEM": 3951,
      "authorized_": 3952,
      "DISTR": 3953,
      "wildfly": 3954,
      "CF": 3955,
      "DN": 3956,
      "SY": 3957,
      "loud": 3958,
      "configuration": 3959,
      "nv": 3960,
      "ENAME": 3961,
      "terraform": 3962,
      "authorized_keys": 3963,
      "porter": 3964,
      "PG": 3965,
      "libbz": 3966,
      "cookie": 3967,
      "fef": 3968,
      "OOL": 3969,
      "9969": 3970,
      "options": 3971,
      "hi": 3972,
      "bas": 3973,
      "262": 3974,
      "PLATFORM": 3975,
      "733": 3976,
      "PP": 3977,
      "her": 3978,
      "full": 3979,
      "Djava": 3980,
      "requests": 3981,
      "prec": 3982,
      "lein": 3983,
      "iproute": 3984,
      "imal": 3985,
      "NPM": 3986,
      "docker_": 3987,
      "rootfs": 3988,
      "multiverse": 3989,
      "missing": 3990,
      "ANT": 3991,
      "jce": 3992,
      "264": 3993,
      "process": 3994,
      "BE": 3995,
      "MODU": 3996,
      "powershell": 3997,
      "341": 3998,
      "chef": 3999,
      "040": 4000,
      "dar": 4001,
      "gb": 4002,
      "ssh_host": 4003,
      "_N": 4004,
      "pted": 4005,
      "LIC": 4006,
      "micro": 4007,
      "Un": 4008,
      "ADM": 4009,
      "300": 4010,
      "gerr": 4011,
      "mis": 4012,
      "hook": 4013,
      "################################": 4014,
      "odo": 4015,
      "ILS": 4016,
      "airflow": 4017,
      "ninja": 4018,
      "KEYS": 4019,
      "Login": 4020,
      ").": 4021,
      "current": 4022,
      "ited": 4023,
      "492": 4024,
      "precise": 4025,
      "2016": 4026,
      "DB_": 4027,
      "ome": 4028,
      "rpi": 4029,
      "mode": 4030,
      "bcd": 4031,
      "GOSU": 4032,
      "406": 4033,
      "277": 4034,
      "vol": 4035,
      "ilib": 4036,
      "iptables": 4037,
      "ish": 4038,
      "Make": 4039,
      "inx": 4040,
      "eclipse": 4041,
      "EO": 4042,
      "PACKAGES": 4043,
      "sleep": 4044,
      "409": 4045,
      "Tools": 4046,
      "Down": 4047,
      "070": 4048,
      "7854": 4049,
      "7121": 4050,
      "libpcre": 4051,
      "brow": 4052,
      "Th": 4053,
      "connector": 4054,
      "GPL": 4055,
      "gl": 4056,
      "hello": 4057,
      "subversion": 4058,
      "GRE": 4059,
      "ale": 4060,
      "PROJEC": 4061,
      "zabbix": 4062,
      "ide": 4063,
      "oh": 4064,
      "dee": 4065,
      "eux": 4066,
      "postfix": 4067,
      "bbcd": 4068,
      "6781": 4069,
      "andom": 4070,
      "307": 4071,
      "iot": 4072,
      "men": 4073,
      "CALA": 4074,
      "dat": 4075,
      "protoc": 4076,
      "366": 4077,
      "SPARK_VERSION": 4078,
      "ption": 4079,
      "428": 4080,
      "Log": 4081,
      "ash": 4082,
      "nag": 4083,
      "INSTALL_PREFIX": 4084,
      "48714": 4085,
      "PermitRoot": 4086,
      "423": 4087,
      "QU": 4088,
      "wordpress": 4089,
      "PermitRootLogin": 4090,
      "fact": 4091,
      "111": 4092,
      "license_file": 4093,
      "multilib": 4094,
      "580": 4095,
      "mods": 4096,
      "eeded": 4097,
      "712": 4098,
      "0660": 4099,
      "780": 4100,
      "tail": 4101,
      "dison": 4102,
      "119": 4103,
      "gli": 4104,
      "857": 4105,
      "BUND": 4106,
      "pgdg": 4107,
      "CGO_": 4108,
      "pam": 4109,
      "638": 4110,
      "_user": 4111,
      "tc": 4112,
      "436": 4113,
      "445": 4114,
      "511": 4115,
      "gp": 4116,
      "soli": 4117,
      "sym": 4118,
      "pipeline": 4119,
      "BER": 4120,
      "JCE": 4121,
      "owner": 4122,
      "MAVEN_VERSION": 4123,
      "libv": 4124,
      "_SCRIPT": 4125,
      "Name": 4126,
      "updates": 4127,
      "scipy": 4128,
      "916": 4129,
      "spring": 4130,
      "mapper": 4131,
      "illiam": 4132,
      "ica": 4133,
      "ovy": 4134,
      "jn": 4135,
      "rake": 4136,
      "rpc": 4137,
      "keygen": 4138,
      "ared": 4139,
      "736": 4140,
      "accepted": 4141,
      "document": 4142,
      "cbc": 4143,
      "fish": 4144,
      "cdn": 4145,
      "channel": 4146,
      "L_VERSION": 4147,
      "NB": 4148,
      "SCALA": 4149,
      "limited": 4150,
      "PG_": 4151,
      "_h": 4152,
      "rails": 4153,
      "Download": 4154,
      "3572": 4155,
      "delete": 4156,
      "_BUILD": 4157,
      "*/": 4158,
      "cda": 4159,
      "559": 4160,
      "watch": 4161,
      "TU": 4162,
      "ji": 4163,
      "firefox": 4164,
      "cla": 4165,
      "sign": 4166,
      "tw": 4167,
      "BUFF": 4168,
      "463": 4169,
      "280": 4170,
      "viz": 4171,
      "hdfs": 4172,
      "beat": 4173,
      "tab": 4174,
      "vide": 4175,
      "edison": 4176,
      "348": 4177,
      "975": 4178,
      "xvfb": 4179,
      "location": 4180,
      "utf": 4181,
      "same": 4182,
      "backports_cv": 4183,
      "378": 4184,
      "LAST": 4185,
      "restore": 4186,
      "kb": 4187,
      "8888": 4188,
      "JAVA_OPTS": 4189,
      "mysqli": 4190,
      "agger": 4191,
      "0775": 4192,
      "influxdb": 4193,
      "distro": 4194,
      "DBU": 4195,
      "email": 4196,
      "arango": 4197,
      "printf": 4198,
      "CGO_ENABLED": 4199,
      "addons": 4200,
      "astro": 4201,
      "nex": 4202,
      "dec": 4203,
      "marc": 4204,
      "461": 4205,
      "vs": 4206,
      "cover": 4207,
      "NEC": 4208,
      "892": 4209,
      "juli": 4210,
      "438": 4211,
      "IS": 4212,
      "imap": 4213,
      "BOS": 4214,
      "JENKINS_": 4215,
      "kg": 4216,
      "png": 4217,
      "exclude": 4218,
      "iv": 4219,
      "asm": 4220,
      "GRAD": 4221,
      "DEBUG": 4222,
      "_PRO": 4223,
      "jfx": 4224,
      "Config": 4225,
      "gtk": 4226,
      "BB": 4227,
      "EE": 4228,
      "ipython": 4229,
      "hbase": 4230,
      "036": 4231,
      "old": 4232,
      "BUFFER": 4233,
      "ick": 4234,
      "287": 4235,
      "CONTAINER": 4236,
      "generate": 4237,
      "uto": 4238,
      "_server": 4239,
      "soap": 4240,
      "451": 4241,
      "slave": 4242,
      "tate": 4243,
      "rebar": 4244,
      "base_image": 4245,
      "efb": 4246,
      "CRE": 4247,
      "needed": 4248,
      "ACK": 4249,
      "vdebian": 4250,
      "pose": 4251,
      "tplot": 4252,
      "965": 4253,
      "shad": 4254,
      "apcu": 4255,
      "valid": 4256,
      "vault": 4257,
      "Ex": 4258,
      "groovy": 4259,
      "gmp": 4260,
      "pand": 4261,
      "minimal": 4262,
      "PER": 4263,
      "User": 4264,
      "tplotlib": 4265,
      "FAUL": 4266,
      "matplotlib": 4267,
      "edx": 4268,
      "xterm": 4269,
      "927": 4270,
      "AIO_": 4271,
      "778": 4272,
      "ccf": 4273,
      "svn": 4274,
      "EMP": 4275,
      "color": 4276,
      "REST": 4277,
      "DBUIL": 4278,
      "852": 4279,
      "cargo": 4280,
      "7675": 4281,
      "PROTO": 4282,
      "5842": 4283,
      "swagger": 4284,
      "sphinx": 4285,
      "za": 4286,
      "edab": 4287,
      "mpi": 4288,
      "cedc": 4289,
      "mnt": 4290,
      "yan": 4291,
      "161": 4292,
      "tify": 4293,
      "$/": 4294,
      "ras": 4295,
      "ghc": 4296,
      "REDI": 4297,
      "Encoding": 4298,
      "bcmath": 4299,
      "GOSU_VERSION": 4300,
      "NEL": 4301,
      "560": 4302,
      "OPENSSL": 4303,
      "facts": 4304,
      "To": 4305,
      "_data": 4306,
      "M_VERSION": 4307,
      "cov": 4308,
      "ASH": 4309,
      "PACKAGE_": 4310,
      "hubble": 4311,
      "041": 4312,
      "Cookie": 4313,
      "556": 4314,
      "KI": 4315,
      "otn": 4316,
      "BUFFERED": 4317,
      "Event": 4318,
      "libmcrypt": 4319,
      "logy": 4320,
      "ANGO_": 4321,
      "oraclelicense": 4322,
      "251": 4323,
      "</": 4324,
      "mt": 4325,
      "coral": 4326,
      "tty": 4327,
      "urope": 4328,
      "055": 4329,
      "USE_": 4330,
      "tation": 4331,
      "blas": 4332,
      "flask": 4333,
      "CFLAGS": 4334,
      "840": 4335,
      "DEFAUL": 4336,
      "/]": 4337,
      "VAR": 4338,
      "148": 4339,
      "solid": 4340,
      "fortran": 4341,
      "gent": 4342,
      "derr": 4343,
      "POSTGRE": 4344,
      "limit": 4345,
      "unknown": 4346,
      "PYTHONUN": 4347,
      "stderr": 4348,
      "upal": 4349,
      "imagick": 4350,
      "fileEncoding": 4351,
      "HADOOP_PREFIX": 4352,
      "browser": 4353,
      "PYTHONUNBUFFERED": 4354,
      "orbit": 4355,
      "libopen": 4356,
      "988": 4357,
      "cut": 4358,
      "chat": 4359,
      "lets": 4360,
      "action": 4361,
      "securebackup": 4362,
      "pla": 4363,
      "4363": 4364,
      "992": 4365,
      "629": 4366,
      "_dir": 4367,
      "268": 4368,
      "SPARK_HOME": 4369,
      "609": 4370,
      "085": 4371,
      "switch": 4372,
      "VCS_": 4373,
      "LICEN": 4374,
      "Com": 4375,
      "display": 4376,
      "vpn": 4377,
      "nagios": 4378,
      "!=": 4379,
      "rsyslog": 4380,
      "ino": 4381,
      "ani": 4382,
      "KER": 4383,
      "zc": 4384,
      "ANDROID_": 4385,
      "SONAR": 4386,
      "odoo": 4387,
      "911": 4388,
      "LOG_DIR": 4389,
      "NetCore": 4390,
      "DR": 4391,
      "nexus": 4392,
      "artifacts": 4393,
      "_SOUR": 4394,
      "encrypt": 4395,
      "Europe": 4396,
      "openresty": 4397,
      "tm": 4398,
      "IMAGE_": 4399,
      "iconv": 4400,
      "feb": 4401,
      "860": 4402,
      "590": 4403,
      "Par": 4404,
      "30638": 4405,
      "squared": 4406,
      "_CONF_DIR": 4407,
      "offi": 4408,
      "_BUILD_": 4409,
      "426": 4410,
      "COMM": 4411,
      "CXX": 4412,
      "Xmx": 4413,
      "ddf": 4414,
      "upstream": 4415,
      "7948": 4416,
      "next": 4417,
      "Asp": 4418,
      "Ad": 4419,
      "rotate": 4420,
      "genericx": 4421,
      "job": 4422,
      "bench": 4423,
      "SCRIPT": 4424,
      "915": 4425,
      "px": 4426,
      "0809": 4427,
      "exp": 4428,
      "sockets": 4429,
      "Devel": 4430,
      "089": 4431,
      "scli": 4432,
      "program": 4433,
      "632": 4434,
      "ncurses": 4435,
      "act": 4436,
      "bsd": 4437,
      "corpus": 4438,
      "165": 4439,
      "TINI": 4440,
      "ys": 4441,
      "FILENAME": 4442,
      "WW": 4443,
      "shadow": 4444,
      "ZIP": 4445,
      "urandom": 4446,
      "958": 4447,
      "tele": 4448,
      "shot": 4449,
      "char": 4450,
      "_J": 4451,
      "buck": 4452,
      "via": 4453,
      "/{": 4454,
      "006": 4455,
      "ffce": 4456,
      "1950": 4457,
      "Di": 4458,
      "002": 4459,
      "KUB": 4460,
      "Tr": 4461,
      "containerd": 4462,
      "sbc": 4463,
      "ular": 4464,
      "Image": 4465,
      "NGINX_VERSION": 4466,
      "retry": 4467,
      "BUILD_DATE": 4468,
      "faad": 4469,
      "expat": 4470,
      "ALTH": 4471,
      "pam_": 4472,
      "APP_DIR": 4473,
      "wiki": 4474,
      "etcher": 4475,
      "gnut": 4476,
      "HEALTH": 4477,
      "974": 4478,
      "_password": 4479,
      "mix": 4480,
      "blackboard": 4481,
      "gnutls": 4482,
      "era": 4483,
      "orbitty": 4484,
      "salt": 4485,
      "ccimx": 4486,
      "6120": 4487,
      "ME_": 4488,
      "buildpack": 4489,
      "1871": 4490,
      "AspNetCore": 4491,
      "./.": 4492,
      "8324": 4493,
      "tox": 4494,
      "spacely": 4495,
      "2025": 4496,
      "635": 4497,
      "0504": 4498,
      "nanopc": 4499,
      "Bus": 4500,
      "ROS": 4501,
      "ake": 4502,
      "pom": 4503,
      "7880": 4504,
      "DRI": 4505,
      "WAR": 4506,
      "Data": 4507,
      "1939": 4508,
      "1606": 4509,
      "9855": 4510,
      "LDF": 4511,
      "_policy": 4512,
      "write": 4513,
      "5657": 4514,
      "5253": 4515,
      "7105": 4516,
      "PKG": 4517,
      "5740": 4518,
      "032": 4519,
      "URE_": 4520,
      "938": 4521,
      "5066": 4522,
      "7283": 4523,
      "ccbe": 4524,
      "ebfa": 4525,
      "rstudio": 4526,
      "Man": 4527,
      "3077": 4528,
      "6856": 4529,
      "8632": 4530,
      "3920": 4531,
      "9842": 4532,
      "sg": 4533,
      "tary": 4534,
      "adce": 4535,
      "6487": 4536,
      "bdde": 4537,
      "efcf": 4538,
      "3637": 4539,
      "beac": 4540,
      "7134": 4541,
      "5279": 4542,
      "edea": 4543,
      "8265": 4544,
      "control": 4545,
      "4777": 4546,
      "ccaa": 4547,
      "0544": 4548,
      "aefc": 4549,
      "9315": 4550,
      "0620": 4551,
      "2757": 4552,
      "6140": 4553,
      "Mod": 4554,
      "dabb": 4555,
      "olla": 4556,
      "6590": 4557,
      "1519": 4558,
      "6393": 4559,
      "4539": 4560,
      "ddbf": 4561,
      "5646": 4562,
      "NIFI": 4563,
      "1173": 4564,
      "beea": 4565,
      "2263": 4566,
      "4903": 4567,
      "6371": 4568,
      "6341": 4569,
      "1361": 4570,
      "0570": 4571,
      "60787": 4572,
      "5209": 4573,
      "ddbed": 4574,
      "DCMAKE_INSTALL_PREFIX": 4575,
      "5236": 4576,
      "2184": 4577,
      "07675": 4578,
      "3256": 4579,
      "dbeff": 4580,
      "adfaad": 4581,
      "64860": 4582,
      "19877": 4583,
      "7263": 4584,
      "729855": 4585,
      "725740": 4586,
      "18781": 4587,
      "222025": 4588,
      "87797": 4589,
      "90336": 4590,
      "17056": 4591,
      "43449": 4592,
      "23139": 4593,
      "2348714": 4594,
      "604539": 4595,
      "aeadb": 4596,
      "09154": 4597,
      "ffad": 4598,
      "060321": 4599,
      "54174": 4600,
      "059233": 4601,
      "bccebd": 4602,
      "bfcea": 4603,
      "738265": 4604,
      "931871": 4605,
      "aabac": 4606,
      "76730": 4607,
      "59235": 4608,
      "efdde": 4609,
      "8230638": 4610,
      "9233": 4611,
      "45369": 4612,
      "453952": 4613,
      "910566": 4614,
      "910958": 4615,
      "637632": 4616,
      "cfbfa": 4617,
      "17690": 4618,
      "1395657": 4619,
      "_DOWNLOAD_URL": 4620,
      "89071": 4621,
      "84817056": 4622,
      "797050": 4623,
      "509797": 4624,
      "cebdfb": 4625,
      "91764": 4626,
      "83059235": 4627,
      "589583": 4628,
      "20446": 4629,
      "810712": 4630,
      "9911606": 4631,
      "2909911606": 4632,
      "459556": 4633,
      "27708": 4634,
      "1199": 4635,
      "9160504": 4636,
      "34884817056": 4637,
      "07751395657": 4638,
      "edabcf": 4639,
      "2512263": 4640,
      "19501939": 4641,
      "6487052": 4642,
      "9315053": 4643,
      "ddbedddbf": 4644,
      "0767543449": 4645,
      "32562": 4646,
      "72631519": 4647,
      "729855182": 4648,
      "22202576": 4649,
      "234871415": 4650,
      "0915425": 4651,
      "05923319": 4652,
      "91095870": 4653,
      "58958355": 4654,
      "4595566120": 4655,
      "348848170567880": 4656,
      "07675434491361": 4657,
      "EMQ": 4658,
      "================": 4659,
      "Auto": 4660,
      "William": 4661,
      "682": 4662,
      "ECR": 4663,
      "samtools": 4664,
      "TF": 4665,
      "444": 4666,
      "tree": 4667,
      "medi": 4668,
      "8081": 4669,
      "_PKGS": 4670,
      "CLI": 4671,
      "/./": 4672,
      "pipefail": 4673,
      "SS_": 4674,
      "fuse": 4675,
      "status": 4676,
      "toolset": 4677,
      "LDFLAGS": 4678,
      "xm": 4679,
      "xu": 4680,
      "2012": 4681,
      "ebf": 4682,
      "geoip": 4683,
      "}:/": 4684,
      "arangodb": 4685,
      "CK_": 4686,
      "REGISTRY": 4687,
      "ode": 4688,
      "javafx": 4689,
      "AUT": 4690,
      "_REPO": 4691,
      "APACHE_RUN": 4692,
      "armhf": 4693,
      "den": 4694,
      "mission": 4695,
      "streamer": 4696,
      "activate": 4697,
      "MODULE": 4698,
      "bcc": 4699,
      "080": 4700,
      "JBOS": 4701,
      "GOOS": 4702,
      "BUILD_TYPE": 4703,
      "ENABLE_": 4704,
      "cpanm": 4705,
      "PIN": 4706,
      "class": 4707,
      "}}": 4708,
      "PAM": 4709,
      "torch": 4710,
      "hugo": 4711,
      "Imp": 4712,
      "pages": 4713,
      "5296": 4714,
      "RAILS": 4715,
      "libapache": 4716,
      "SCALA_VERSION": 4717,
      "ward": 4718,
      "Installing": 4719,
      "Pack": 4720,
      "memory": 4721,
      "<<<": 4722,
      "tem": 4723,
      "libzmq": 4724,
      "Rf": 4725,
      "fbf": 4726,
      "ku": 4727,
      "leg": 4728,
      "xsl": 4729,
      "618": 4730,
      "_max_": 4731,
      "222": 4732,
      "ldf": 4733,
      "odbc": 4734,
      "995": 4735,
      "notary": 4736,
      "STOR": 4737,
      "920": 4738,
      "mock": 4739,
      "bound": 4740,
      "gcloud": 4741,
      "geos": 4742,
      "3589": 4743,
      "evm": 4744,
      "aca": 4745,
      "drupal": 4746,
      "ldflags": 4747,
      "AE": 4748,
      "Qu": 4749,
      "logrotate": 4750,
      "Path": 4751,
      "langu": 4752,
      "foreground": 4753,
      "ELAST": 4754,
      "zyp": 4755,
      "migra": 4756,
      "dre": 4757,
      "learn": 4758,
      "nanopi": 4759,
      "zypper": 4760,
      "jav": 4761,
      "ther": 4762,
      "syn": 4763,
      "_name": 4764,
      "vert": 4765,
      "GPG": 4766,
      "send": 4767,
      "ACTIVEMQ": 4768,
      "CER": 4769,
      "awscli": 4770,
      "jobs": 4771,
      "SOLR_VERSION": 4772,
      "224": 4773,
      "035": 4774,
      "CATION": 4775,
      "Mar": 4776,
      "Pl": 4777,
      "kin": 4778,
      "gopath": 4779,
      "ARCHIV": 4780,
      "dashboard": 4781,
      "ride": 4782,
      "gfortran": 4783,
      "rq": 4784,
      "exporter": 4785,
      "ttf": 4786,
      "Makefile": 4787,
      "btrf": 4788,
      "CLOU": 4789,
      "SM": 4790,
      "har": 4791,
      "sav": 4792,
      "aef": 4793,
      "oot": 4794,
      "diff": 4795,
      "PLU": 4796,
      "226": 4797,
      "687": 4798,
      "optional": 4799,
      "ics": 4800,
      "764": 4801,
      "dium": 4802,
      "jce_policy": 4803,
      "thenti": 4804,
      "571": 4805,
      "194": 4806,
      "vt": 4807,
      "RUBY_VERSION": 4808,
      "gecos": 4809,
      "ONE": 4810,
      "secret": 4811,
      "}/.": 4812,
      "arg": 4813,
      "libe": 4814,
      "faa": 4815,
      "create_": 4816,
      "kyll": 4817,
      "arocks": 4818,
      "luarocks": 4819,
      "096": 4820,
      "SOFT": 4821,
      "270": 4822,
      "cbb": 4823,
      "CONDA": 4824,
      "btrfs": 4825,
      "pocket": 4826,
      "ube": 4827,
      "collect": 4828,
      "bae": 4829,
      "313": 4830,
      "kar": 4831,
      "wk": 4832,
      "graphviz": 4833,
      "E_HOME": 4834,
      "On": 4835,
      "storm": 4836,
      "sock": 4837,
      "HADOOP_HOME": 4838,
      "SDK": 4839,
      "rus": 4840,
      "smarc": 4841,
      "npe": 4842,
      "desktop": 4843,
      "zyn": 4844,
      "private": 4845,
      "2017": 4846,
      "c_": 4847,
      "erepo": 4848,
      "management": 4849,
      "jp": 4850,
      "eval": 4851,
      "lnet": 4852,
      "dbg": 4853,
      "lt": 4854,
      "9880": 4855,
      "LEV": 4856,
      "licenses": 4857,
      "blan": 4858,
      "IZ": 4859,
      "ene": 4860,
      "GPG_KEYS": 4861,
      "+-": 4862,
      "xq": 4863,
      "882": 4864,
      "verbo": 4865,
      "DRIVER": 4866,
      "FC": 4867,
      "Mark": 4868,
      "331": 4869,
      "731": 4870,
      "cri": 4871,
      "soc": 4872,
      "HEALTHCHECK": 4873,
      "=>": 4874,
      "none": 4875,
      "ETC": 4876,
      "DATABASE_": 4877,
      "dll": 4878,
      "anapi": 4879,
      "configs": 4880,
      "frozen": 4881,
      "581": 4882,
      "5432": 4883,
      "gue": 4884,
      "uname": 4885,
      "pell": 4886,
      "anaconda": 4887,
      "Project": 4888,
      "Ac": 4889,
      "ghost": 4890,
      "683": 4891,
      "jekyll": 4892,
      "sd": 4893,
      "bash_": 4894,
      "JAVA_PACKAGE": 4895,
      "libX": 4896,
      "136": 4897,
      "webp": 4898,
      "DER": 4899,
      "MET": 4900,
      "kr": 4901,
      "AL_": 4902,
      "very": 4903,
      "RPM": 4904,
      "644": 4905,
      "ngx_": 4906,
      "LICENSE": 4907,
      "netcat": 4908,
      "0059": 4909,
      "ALPIN": 4910,
      "beb": 4911,
      "dyna": 4912,
      "azure": 4913,
      "956": 4914,
      "BOOT": 4915,
      "LE_VERSION": 4916,
      "arnish": 4917,
      "713": 4918,
      "ASS": 4919,
      "DATA_DIR": 4920,
      "bdd": 4921,
      "293": 4922,
      "ended": 4923,
      "721": 4924,
      "_release": 4925,
      "cel": 4926,
      "sodium": 4927,
      "libglib": 4928,
      "bucket": 4929,
      "0755": 4930,
      "GE": 4931,
      "ifi": 4932,
      "ERVICE_": 4933,
      "VCS_REF": 4934,
      "=--": 4935,
      "seq": 4936,
      "hashi": 4937,
      "Import": 4938,
      "ign": 4939,
      "NVM": 4940,
      "alina": 4941,
      "nifi": 4942,
      "pwgen": 4943,
      "tech": 4944,
      "egd": 4945,
      "yun": 4946,
      "STAT": 4947,
      "EXTRA": 4948,
      "PR": 4949,
      "bra": 4950,
      "998": 4951,
      "ahf": 4952,
      "bookworm": 4953,
      "410": 4954,
      "/*/": 4955,
      "715": 4956,
      "wifi": 4957,
      "513": 4958,
      "pam_login": 4959,
      "831": 4960,
      "[--": 4961,
      "fab": 4962,
      "README": 4963,
      "C_URL": 4964,
      "TEST_": 4965,
      "metadata": 4966,
      "ORT_": 4967,
      "8020": 4968,
      "deployment": 4969,
      "blackfire": 4970,
      "hashicorp": 4971,
      "Au": 4972,
      "My": 4973,
      "[-": 4974,
      "fla": 4975,
      "verbose": 4976,
      "]]": 4977,
      "remote_": 4978,
      "snapshot": 4979,
      "CONFIG": 4980,
      "pam_loginuid": 4981,
      "wine": 4982,
      "_CA": 4983,
      "Apache": 4984,
      "4900": 4985,
      "firef": 4986,
      "nix": 4987,
      "craft": 4988,
      "firefly": 4989,
      "*=": 4990,
      "491": 4991,
      "world": 4992,
      "cubox": 4993,
      "askell": 4994,
      "zynq": 4995,
      "bre": 4996,
      "devtools": 4997,
      "openv": 4998,
      "bdf": 4999,
      "hdmi": 5000,
      "varnish": 5001,
      "fincm": 5002,
      "bananapi": 5003,
      "artifact": 5004,
      "AUTH": 5005,
      "VID": 5006,
      "928": 5007,
      "mium": 5008,
      "ngr": 5009,
      "beagleboard": 5010,
      "orangepi": 5011,
      "ches": 5012,
      "solidrun": 5013,
      "746": 5014,
      "GITLAB": 5015,
      "Module": 5016,
      "elf": 5017,
      "539": 5018,
      "fedor": 5019,
      "libxcb": 5020,
      "303": 5021,
      "_CONNEC": 5022,
      "LEVEL": 5023,
      "cdd": 5024,
      "Recommends": 5025,
      "eba": 5026,
      "ARY": 5027,
      "libti": 5028,
      "latex": 5029,
      "serve": 5030,
      "ATION": 5031,
      "INSTALL_PKGS": 5032,
      "ELASTIC": 5033,
      "LAR": 5034,
      "237": 5035,
      "logging": 5036,
      "{{": 5037,
      "level": 5038,
      "ames": 5039,
      "setopt": 5040,
      "049": 5041,
      "bor": 5042,
      "javaws": 5043,
      "indi": 5044,
      "asse": 5045,
      "_all": 5046,
      "chine": 5047,
      "rqlite": 5048,
      "perf": 5049,
      "serv": 5050,
      "render": 5051,
      "ADO": 5052,
      "DOCKER_BUILDTAGS": 5053,
      "008": 5054,
      "lon": 5055,
      "ndk": 5056,
      "mete": 5057,
      "PHP_C": 5058,
      "les": 5059,
      "mos": 5060,
      "hive": 5061,
      "ANDROID_SDK": 5062,
      "EXT": 5063,
      "684": 5064,
      "tls": 5065,
      "582": 5066,
      "_MIRROR": 5067,
      "390": 5068,
      "debhelper": 5069,
      "self": 5070,
      "chromedriver": 5071,
      "DOWNLOAD_URL": 5072,
      "TORY": 5073,
      "3478": 5074,
      "execu": 5075,
      "pypy": 5076,
      "rick": 5077,
      "pandoc": 5078,
      "EAM": 5079,
      "instance": 5080,
      "BASE_DIR": 5081,
      "jit": 5082,
      "archives": 5083,
      "misc": 5084,
      "Develop": 5085,
      "Dir": 5086,
      "ik": 5087,
      "rmngr": 5088,
      "dirmngr": 5089,
      "wkhtml": 5090,
      "lx": 5091,
      "rhel": 5092,
      "stage": 5093,
      "846": 5094,
      "BACK": 5095,
      ";]": 5096,
      "Po": 5097,
      "alcon": 5098,
      "icha": 5099,
      "ller": 5100,
      "SEARCH": 5101,
      "overlay": 5102,
      "sted": 5103,
      "792": 5104,
      "telnet": 5105,
      "param": 5106,
      "ricted": 5107,
      "DOM": 5108,
      "EW": 5109,
      "parse": 5110,
      "gdal": 5111,
      "restricted": 5112,
      "rwx": 5113,
      "521": 5114,
      "raph": 5115,
      "833": 5116,
      "libgmp": 5117,
      "alaxy": 5118,
      "_G": 5119,
      "fce": 5120,
      "vnc": 5121,
      "ernal": 5122,
      "unbound": 5123,
      "Cat": 5124,
      "AIRFLOW_": 5125,
      "pandas": 5126,
      "Comp": 5127,
      "109": 5128,
      "party": 5129,
      "Book": 5130,
      "stru": 5131,
      "helm": 5132,
      "dcevm": 5133,
      "UsePAM": 5134,
      "099": 5135,
      "7999": 5136,
      "_GROUP": 5137,
      "gests": 5138,
      "caddy": 5139,
      "EventBus": 5140,
      "079": 5141,
      "GITH": 5142,
      "aproject": 5143,
      "983": 5144,
      "fedoraproject": 5145,
      "Fra": 5146,
      "dock": 5147,
      "fold": 5148,
      "490": 5149,
      "MEM": 5150,
      "Clean": 5151,
      "ano": 5152,
      "JBOSS_HOME": 5153,
      "mtp": 5154,
      "ARGS": 5155,
      "GALA": 5156,
      "464": 5157,
      "Get": 5158,
      "libgtk": 5159,
      "RUBY": 5160,
      "nodocs": 5161,
      "extras": 5162,
      "Blan": 5163,
      "models": 5164,
      "ssh_host_": 5165,
      "Important": 5166,
      "469": 5167,
      "haskell": 5168,
      "1278": 5169,
      "431": 5170,
      "NB_USER": 5171,
      "elix": 5172,
      "2128": 5173,
      "SIZE": 5174,
      "resol": 5175,
      "BD": 5176,
      "tegra": 5177,
      "7081": 5178,
      "sky": 5179,
      "clients": 5180,
      "Asia": 5181,
      "mozdef": 5182,
      "libapp": 5183,
      "swig": 5184,
      "crontab": 5185,
      "8491": 5186,
      "encoding": 5187,
      "8011": 5188,
      "1942": 5189,
      "0054": 5190,
      "SPACE": 5191,
      "BUILD_DEPS": 5192,
      "DOMAIN": 5193,
      "AutoRemove": 5194,
      "gunzip": 5195,
      "7517": 5196,
      "tmux": 5197,
      "411": 5198,
      "shar": 5199,
      "token": 5200,
      "edef": 5201,
      "4208": 5202,
      "365": 5203,
      "localedef": 5204,
      "hip": 5205,
      "eea": 5206,
      "0074": 5207,
      "4931": 5208,
      "website": 5209,
      "libgl": 5210,
      "0794": 5211,
      "iss": 5212,
      "aff": 5213,
      "progs": 5214,
      "27271": 5215,
      "Mini": 5216,
      "19564": 5217,
      "192012": 5218,
      "78386": 5219,
      "76952": 5220,
      "efabc": 5221,
      "/^#": 5222,
      "57577": 5223,
      "477405": 5224,
      "785414": 5225,
      "307666": 5226,
      "42854": 5227,
      "463682": 5228,
      "fbfcc": 5229,
      "00598011": 5230,
      "3478913": 5231,
      "751757577": 5232,
      "07945296": 5233,
      "783863478913": 5234,
      "667": 5235,
      "grav": 5236,
      "Che": 5237,
      "tsf": 5238,
      "inc": 5239,
      "acy": 5240,
      "chromium": 5241,
      "WITH_": 5242,
      "fbb": 5243,
      "lz": 5244,
      "orn": 5245,
      "qube": 5246,
      "kafka_": 5247,
      "tsflags": 5248,
      "FOL": 5249,
      "letsencrypt": 5250,
      "CD": 5251,
      "_SOURCE": 5252,
      "_v": 5253,
      "bcf": 5254,
      "css": 5255,
      "aee": 5256,
      "provision": 5257,
      "lsb_release": 5258,
      "OSX": 5259,
      "758": 5260,
      "ert": 5261,
      "ELASTICSEARCH": 5262,
      "pop": 5263,
      "OPTION": 5264,
      "ray": 5265,
      "openstack": 5266,
      "initctl": 5267,
      "tray": 5268,
      "blankenship": 5269,
      "Blankenship": 5270,
      "stone": 5271,
      "domain": 5272,
      "fec": 5273,
      "681": 5274,
      "GITHUB": 5275,
      "bintray": 5276,
      "cot": 5277,
      "libseccomp": 5278,
      "squid": 5279,
      "NGINX": 5280,
      "Bookworm": 5281,
      "164": 5282,
      "Lib": 5283,
      "ZOO": 5284,
      "1611": 5285,
      "external": 5286,
      "MINI": 5287,
      "gdb": 5288,
      "wblankenship": 5289,
      "))/": 5290,
      "mod_": 5291,
      "isk": 5292,
      "NGINX_": 5293,
      "NVM_DIR": 5294,
      "galaxy": 5295,
      "alloc": 5296,
      "PG_MAJOR": 5297,
      "jdbc": 5298,
      "ceph": 5299,
      "eeb": 5300,
      "HADOOP_VERSION": 5301,
      "eda": 5302,
      "hh": 5303,
      "met": 5304,
      "meteor": 5305,
      "_HOST": 5306,
      "test_": 5307,
      "ife": 5308,
      "linuxkit": 5309,
      "PIP_": 5310,
      "devtoolset": 5311,
      "KERNEL": 5312,
      "ichael": 5313,
      "uuid": 5314,
      "psy": 5315,
      "FRESH": 5316,
      "TOOLS": 5317,
      "lnd": 5318,
      "576": 5319,
      "EF": 5320,
      "ips": 5321,
      "its": 5322,
      "uc": 5323,
      "ink": 5324,
      "384": 5325,
      "COL": 5326,
      "sand": 5327,
      "Key": 5328,
      "tity": 5329,
      "count": 5330,
      "prep": 5331,
      "boto": 5332,
      "eppe": 5333,
      "GEM_HOME": 5334,
      "eppelin": 5335,
      "libzip": 5336,
      "yo": 5337,
      "systemctl": 5338,
      "EA": 5339,
      "GOARCH": 5340,
      "rootp": 5341,
      "_COM": 5342,
      "language": 5343,
      "IN_VERSION": 5344,
      "Me": 5345,
      "autotools": 5346,
      "acca": 5347,
      "versions": 5348,
      "liblz": 5349,
      "ACC": 5350,
      "sco": 5351,
      "mdns": 5352,
      "784": 5353,
      "groups": 5354,
      "BUNDLE_": 5355,
      "onbuild": 5356,
      "LIBS": 5357,
      "tiny": 5358,
      "ead": 5359,
      "save": 5360,
      "SIGN": 5361,
      "errors": 5362,
      "bdee": 5363,
      "crypto": 5364,
      "DISTRO": 5365,
      "KOL": 5366,
      "late": 5367,
      "dove": 5368,
      "ball": 5369,
      "985": 5370,
      "PROJECT_": 5371,
      "daec": 5372,
      "8685": 5373,
      "playbook": 5374,
      "This": 5375,
      "TINI_VERSION": 5376,
      "jan": 5377,
      "9017": 5378,
      "KOLLA": 5379,
      "iso": 5380,
      "4389": 5381,
      "8098": 5382,
      "XY_": 5383,
      "sty": 5384,
      "7485": 5385,
      "Cont": 5386,
      "ERLANG": 5387,
      "fedf": 5388,
      "1912": 5389,
      "efda": 5390,
      "carbon": 5391,
      "9036": 5392,
      "hostname": 5393,
      "4422": 5394,
      "4628": 5395,
      "bcae": 5396,
      "4188": 5397,
      "aac": 5398,
      "7727": 5399,
      "398": 5400,
      "eaba": 5401,
      "1568": 5402,
      "513451": 5403,
      "zeppelin": 5404,
      "64363": 5405,
      "dockerize": 5406,
      "16308": 5407,
      "REFRESH": 5408,
      "70082": 5409,
      "708685": 5410,
      "fbbdee": 5411,
      "03733": 5412,
      "48490": 5413,
      "4003589": 5414,
      "85360": 5415,
      "978513451": 5416,
      "4363983": 5417,
      "bccfbbdee": 5418,
      "988048490": 5419,
      "0081278": 5420,
      "1912630": 5421,
      "4422683": 5422,
      "418859": 5423,
      "6436381": 5424,
      "alf": 5425,
      "lient": 5426,
      "3260": 5427,
      "rootpw": 5428,
      "rule": 5429,
      "nologin": 5430,
      "libldap": 5431,
      "cairo": 5432,
      "LARADO": 5433,
      "LARADOCK_": 5434,
      "US_": 5435,
      "bbf": 5436,
      "088": 5437,
      "archlinux": 5438,
      "ttl": 5439,
      "hyper": 5440,
      "abad": 5441,
      "julia": 5442,
      "ARB": 5443,
      "idge": 5444,
      "libav": 5445,
      "HEAD": 5446,
      "sonarqube": 5447,
      "415": 5448,
      "4000": 5449,
      "BASE_IMAGE": 5450,
      "TOMCAT_VERSION": 5451,
      "Miniconda": 5452,
      "cms": 5453,
      "van": 5454,
      "2129": 5455,
      "rustup": 5456,
      "mongod": 5457,
      "2618": 5458,
      "catalina": 5459,
      "828": 5460,
      "cebf": 5461,
      "2041": 5462,
      "3233": 5463,
      "generator": 5464,
      "0758": 5465,
      "Development": 5466,
      "dovecot": 5467,
      "4662": 5468,
      "6518": 5469,
      "ddd": 5470,
      "aliyun": 5471,
      "0476": 5472,
      "dfabf": 5473,
      "2198": 5474,
      "udev": 5475,
      "ARANGO_": 5476,
      "ceeeb": 5477,
      "86521": 5478,
      "197121": 5479,
      "72853": 5480,
      "04089": 5481,
      "28539": 5482,
      "76985": 5483,
      "17356": 5484,
      "3154628": 5485,
      "130724": 5486,
      "40628539": 5487,
      "5806518": 5488,
      "22424": 5489,
      "764197121": 5490,
      "ebaaa": 5491,
      "3260666": 5492,
      "212976985": 5493,
      "32333260666": 5494,
      "466296": 5495,
      "0408963": 5496,
      "21297698517356": 5497,
      "sto": 5498,
      "uru": 5499,
      "mozilla": 5500,
      "S_S": 5501,
      "ily": 5502,
      ",:": 5503,
      "filebeat": 5504,
      "virt": 5505,
      "office": 5506,
      "elixir": 5507,
      "tures": 5508,
      "single": 5509,
      "stian": 5510,
      "turn": 5511,
      "********": 5512,
      "iden": 5513,
      "postgis": 5514,
      "ueabi": 5515,
      "gnueabi": 5516,
      "dnsutils": 5517,
      "dfe": 5518,
      "ii": 5519,
      "pul": 5520,
      "cleanup": 5521,
      "MIT": 5522,
      "ipy": 5523,
      "ER_HOME": 5524,
      "LASS": 5525,
      "sgerr": 5526,
      "interval": 5527,
      "Test": 5528,
      "steam": 5529,
      "sgerrand": 5530,
      "_INSTALL": 5531,
      "libqt": 5532,
      "USER_HOME": 5533,
      "DCMAKE_BUILD_TYPE": 5534,
      ":+": 5535,
      "JET": 5536,
      "peed": 5537,
      "pu": 5538,
      "now": 5539,
      "activemq": 5540,
      "ED_AT": 5541,
      "row": 5542,
      "KAFKA": 5543,
      "grid": 5544,
      "priv": 5545,
      "GD": 5546,
      "OG": 5547,
      "WS": 5548,
      "libfontconfig": 5549,
      "5748": 5550,
      "6222": 5551,
      "reen": 5552,
      "Load": 5553,
      "Gen": 5554,
      "aster": 5555,
      "exif": 5556,
      "eld": 5557,
      "2738": 5558,
      "ema": 5559,
      "6255": 5560,
      "Team": 5561,
      "snmp": 5562,
      "3770": 5563,
      "HU": 5564,
      "HUB": 5565,
      "lapack": 5566,
      "JAVA_VERSION_BUILD": 5567,
      "cook": 5568,
      "usage": 5569,
      "fbee": 5570,
      "19843": 5571,
      "3701": 5572,
      "21994": 5573,
      "tidy": 5574,
      "10679": 5575,
      "787715": 5576,
      "046856": 5577,
      "53496": 5578,
      "98562": 5579,
      "92198": 5580,
      "730520": 5581,
      "mysqlnd": 5582,
      "33319843": 5583,
      "0809730520": 5584,
      "80205": 5585,
      "10679331": 5586,
      "78771550": 5587,
      "04685633319843": 5588,
      "defaults": 5589,
      "bab": 5590,
      "assemb": 5591,
      "track": 5592,
      "FLA": 5593,
      "EP": 5594,
      "AGI": 5595,
      "size": 5596,
      "keep": 5597,
      "DEFAULT_": 5598,
      "656": 5599,
      "libsasl": 5600,
      "CL": 5601,
      "Cent": 5602,
      "ral": 5603,
      "stub": 5604,
      "machine": 5605,
      "instant": 5606,
      "ccb": 5607,
      "libgtest": 5608,
      "ez": 5609,
      "xtension": 5610,
      "bel": 5611,
      "6533": 5612,
      "prefer": 5613,
      "sound": 5614,
      "REFRESHED_AT": 5615,
      "480": 5616,
      "674": 5617,
      "OW": 5618,
      "collector": 5619,
      "JS_VERSION": 5620,
      "basic": 5621,
      "psyco": 5622,
      "8053": 5623,
      "AUTO_": 5624,
      "zh": 5625,
      "minecraft": 5626,
      "PAR": 5627,
      "req": 5628,
      "thir": 5629,
      "coreutils": 5630,
      "DOCKER_VERSION": 5631,
      "cython": 5632,
      "UTC": 5633,
      "channels": 5634,
      "DIS": 5635,
      "5360": 5636,
      "979": 5637,
      "FOLDER": 5638,
      "used": 5639,
      "openvswitch": 5640,
      "_SRC": 5641,
      "8588": 5642,
      "dff": 5643,
      "4154": 5644,
      "9341": 5645,
      "manife": 5646,
      "157": 5647,
      "PROXY": 5648,
      "TE_": 5649,
      "aer": 5650,
      "ffi": 5651,
      ">=": 5652,
      "enium": 5653,
      "pha": 5654,
      "_MA": 5655,
      "9239": 5656,
      "87515": 5657,
      "dabad": 5658,
      "65226": 5659,
      "209239": 5660,
      "60609": 5661,
      "88306": 5662,
      "51173": 5663,
      "5551173": 5664,
      "31182": 5665,
      "17452": 5666,
      "751571": 5667,
      "0660398": 5668,
      "9744154": 5669,
      "8825360": 5670,
      "0795551173": 5671,
      "instantclient": 5672,
      "8588431": 5673,
      "SB": 5674,
      "rancher": 5675,
      "inu": 5676,
      "144": 5677,
      "EST": 5678,
      "Le": 5679,
      "efc": 5680,
      "mh": 5681,
      "swarm": 5682,
      "expect": 5683,
      "psycopg": 5684,
      "oauth": 5685,
      "STACK": 5686,
      "init_": 5687,
      "libz": 5688,
      "grp": 5689,
      "CUDA": 5690,
      "aging": 5691,
      "tegration": 5692,
      "Set": 5693,
      "opus": 5694,
      "OS_": 5695,
      "clou": 5696,
      "hubot": 5697,
      "pwd": 5698,
      "HTTP_": 5699,
      "ADMIN": 5700,
      "SERVICE_": 5701,
      "orbis": 5702,
      "strace": 5703,
      "../.": 5704,
      "LE_HOME": 5705,
      "cube": 5706,
      "Mo": 5707,
      "imple": 5708,
      "scale": 5709,
      "Building": 5710,
      "704": 5711,
      "rack": 5712,
      "theme": 5713,
      "TIME_": 5714,
      "libedit": 5715,
      "tmpl": 5716,
      "PLON": 5717,
      "sensu": 5718,
      "kan": 5719,
      "metri": 5720,
      "toma": 5721,
      "dummy": 5722,
      "land": 5723,
      "----------------": 5724,
      "kolla": 5725,
      "103": 5726,
      "dpkgArch": 5727,
      "Unlimited": 5728,
      "that": 5729,
      "565": 5730,
      "commit": 5731,
      "phpize": 5732,
      "9200": 5733,
      "nux": 5734,
      "SIB": 5735,
      "conta": 5736,
      "get_": 5737,
      "abl": 5738,
      "804": 5739,
      "CROSS_": 5740,
      "PG_VERSION": 5741,
      "runc": 5742,
      "whl": 5743,
      "healthcheck": 5744,
      "libmagick": 5745,
      "faf": 5746,
      "ablerepo": 5747,
      "7968": 5748,
      "244": 5749,
      "_DOWNLOAD_SHA": 5750,
      "screen": 5751,
      "libapparmor": 5752,
      "346": 5753,
      "_log": 5754,
      "_app": 5755,
      "pki": 5756,
      "OR_": 5757,
      "EMA": 5758,
      "COMPOSER_": 5759,
      "resh": 5760,
      "envs": 5761,
      "Cloud": 5762,
      "fdf": 5763,
      "adock": 5764,
      "cdc": 5765,
      "CP": 5766,
      "mun": 5767,
      "relic": 5768,
      "vars": 5769,
      "wso": 5770,
      "night": 5771,
      "alpha": 5772,
      "GER": 5773,
      "720": 5774,
      "LARADOCK_PHP_VERSION": 5775,
      "UP_": 5776,
      "Check": 5777,
      "084": 5778,
      "ORAC": 5779,
      "091": 5780,
      "fake": 5781,
      "7215": 5782,
      "2014": 5783,
      "provid": 5784,
      "VA": 5785,
      "_admin": 5786,
      "dra": 5787,
      "OPTIONS": 5788,
      "TARGETARCH": 5789,
      "quay": 5790,
      "libexec": 5791,
      "libcap": 5792,
      "ilege": 5793,
      "libraries": 5794,
      "tum": 5795,
      "img": 5796,
      "bec": 5797,
      "MI": 5798,
      "Option": 5799,
      "sb": 5800,
      "ancho": 5801,
      "lig": 5802,
      "774": 5803,
      "openldap": 5804,
      "workdir": 5805,
      "_BIN": 5806,
      "selenium": 5807,
      "599": 5808,
      "mu": 5809,
      "ogg": 5810,
      "MD": 5811,
      "Ste": 5812,
      "push": 5813,
      "xJ": 5814,
      "gemrc": 5815,
      "dind": 5816,
      "libsodium": 5817,
      "newrelic": 5818,
      "laradock": 5819,
      ".${": 5820,
      "nb": 5821,
      "entation": 5822,
      "memcache": 5823,
      "controller": 5824,
      "flags": 5825,
      "saved": 5826,
      "743": 5827,
      "RAB": 5828,
      "VIR": 5829,
      "cpu": 5830,
      "bfb": 5831,
      "parser": 5832,
      "Ph": 5833,
      "uzz": 5834,
      "runDeps": 5835,
      "final": 5836,
      "glide": 5837,
      "fp": 5838,
      "sti": 5839,
      "_CHE": 5840,
      "toolkit": 5841,
      "_TAG": 5842,
      "sis": 5843,
      "aufs": 5844,
      "_setup": 5845,
      "_proxy": 5846,
      "context": 5847,
      "gor": 5848,
      "337": 5849,
      "interface": 5850,
      "guest": 5851,
      "dcc": 5852,
      "6553": 5853,
      "lxml": 5854,
      "uy": 5855,
      "bam": 5856,
      "823": 5857,
      "alex": 5858,
      "196": 5859,
      "jars": 5860,
      "685": 5861,
      "397": 5862,
      "mart": 5863,
      "lassian": 5864,
      "121": 5865,
      "Car": 5866,
      "masq": 5867,
      "bak": 5868,
      "ski": 5869,
      "legacy": 5870,
      "libtiff": 5871,
      "andy": 5872,
      "INTER": 5873,
      "dnsmasq": 5874,
      "_sig": 5875,
      "CONDA_DIR": 5876,
      "172": 5877,
      "DST": 5878,
      "header": 5879,
      "KEY_": 5880,
      "KEN": 5881,
      "CKET": 5882,
      "GRA": 5883,
      "27017": 5884,
      "gui": 5885,
      "coder": 5886,
      "ABLE_": 5887,
      "memory_": 5888,
      "650": 5889,
      "TS": 5890,
      "ctional": 5891,
      "atlassian": 5892,
      "bea": 5893,
      "bridge": 5894,
      "Jo": 5895,
      "suse": 5896,
      "Apt": 5897,
      "_base": 5898,
      "_env": 5899,
      "pil": 5900,
      "pdf": 5901,
      "Proper": 5902,
      "RecommendsImportant": 5903,
      "Files": 5904,
      "TMP": 5905,
      "tcl": 5906,
      "avel": 5907,
      "works": 5908,
      "submodule": 5909,
      "GLIBC_": 5910,
      "Li": 5911,
      "baf": 5912,
      "libprotobuf": 5913,
      "007": 5914,
      "hai": 5915,
      "pike": 5916,
      "analytics": 5917,
      "sun": 5918,
      "recomm": 5919,
      "scm": 5920,
      "networkaddress": 5921,
      "734": 5922,
      "JAR": 5923,
      "mal": 5924,
      "]];": 5925,
      "hard": 5926,
      "jksSL": 5927,
      "hhvm": 5928,
      "_test": 5929,
      "pin": 5930,
      "pull": 5931,
      "loader": 5932,
      "override": 5933,
      "GOLANG_VERSION": 5934,
      "ARBALL": 5935,
      "twi": 5936,
      "ilt": 5937,
      "_SCRIPTS_PATH": 5938,
      "tle": 5939,
      "266": 5940,
      "RESS": 5941,
      "druid": 5942,
      "NDK": 5943,
      "SW": 5944,
      "TEMP": 5945,
      "dog": 5946,
      "APP_ROOT": 5947,
      "rules": 5948,
      "rix": 5949,
      "webpack": 5950,
      "layer": 5951,
      "jksSLH": 5952,
      "qa": 5953,
      "014": 5954,
      "patches": 5955,
      "CONFIG_": 5956,
      "cas": 5957,
      "kel": 5958,
      "081": 5959,
      ",--": 5960,
      "718": 5961,
      "ao": 5962,
      "_url": 5963,
      "mann": 5964,
      "ORIENTDB_VERSION": 5965,
      "mosqu": 5966,
      "003": 5967,
      "mosquit": 5968,
      "shiny": 5969,
      "()": 5970,
      "rad": 5971,
      "tpd": 5972,
      "slack": 5973,
      "Catalog": 5974,
      "112": 5975,
      "=`": 5976,
      "MENT": 5977,
      "moby": 5978,
      "*;": 5979,
      "OD": 5980,
      "Rscript": 5981,
      "rit": 5982,
      "dnn": 5983,
      "BITCOIN_": 5984,
      "darwin": 5985,
      "structure": 5986,
      "eq": 5987,
      "probe": 5988,
      "transmission": 5989,
      "RABBIT": 5990,
      "PWD": 5991,
      "cred": 5992,
      "asterisk": 5993,
      "RABBITMQ": 5994,
      "077": 5995,
      "NUM": 5996,
      "THREAD": 5997,
      "buff": 5998,
      "752": 5999,
      "AUTO_GOPATH": 6000,
      "472": 6001,
      "pon": 6002,
      "rout": 6003,
      "continu": 6004,
      "PPFLAGS": 6005,
      "/$(": 6006,
      "lame": 6007,
      "internal": 6008,
      "bert": 6009,
      "MONGO": 6010,
      "olan": 6011,
      "542": 6012,
      "JENKINS_HOME": 6013,
      "pf": 6014,
      "993": 6015,
      "KAFKA_VERSION": 6016,
      "USER_ID": 6017,
      "RAILS_ENV": 6018,
      "===>": 6019,
      "DB_VERSION": 6020,
      "cz": 6021,
      "vh": 6022,
      "linuxbrew": 6023,
      "ereum": 6024,
      "653": 6025,
      "DITION": 6026,
      "findutils": 6027,
      "_TYPE": 6028,
      "omic": 6029,
      "rubygems": 6030,
      ";)": 6031,
      "UI": 6032,
      "ZONE": 6033,
      "xcb": 6034,
      "mas": 6035,
      "473": 6036,
      "dm": 6037,
      "libwebp": 6038,
      "dbb": 6039,
      "GROUND": 6040,
      "QUB": 6041,
      "sessions": 6042,
      "mosquitto": 6043,
      "libxt": 6044,
      "ntl": 6045,
      "Directory": 6046,
      "019": 6047,
      "ocaml": 6048,
      "ENT_VERSION": 6049,
      "socat": 6050,
      "asks": 6051,
      "ector": 6052,
      "SONARQUB": 6053,
      "549": 6054,
      "ethereum": 6055,
      "dsa": 6056,
      "861": 6057,
      "594": 6058,
      "monitoring": 6059,
      "Property": 6060,
      "Mat": 6061,
      "eter": 6062,
      "sass": 6063,
      "nxs": 6064,
      "tf": 6065,
      "root_password": 6066,
      "_home": 6067,
      "case": 6068,
      "configserver": 6069,
      "fastcgi": 6070,
      "ura": 6071,
      "devscripts": 6072,
      "resco": 6073,
      "COMMIT": 6074,
      "KIB": 6075,
      "allin": 6076,
      "htdocs": 6077,
      "jira": 6078,
      "Quark": 6079,
      "SC": 6080,
      "deployments": 6081,
      "Geo": 6082,
      "uler": 6083,
      "theora": 6084,
      "sandbox": 6085,
      "_files": 6086,
      "312": 6087,
      "fw": 6088,
      "alk": 6089,
      "gest": 6090,
      "6379": 6091,
      "myadmin": 6092,
      "sug": 6093,
      "nxsconfigserver": 6094,
      "ply": 6095,
      "SPARK_": 6096,
      "overwrite": 6097,
      "POSTGRES_": 6098,
      "pytest": 6099,
      "field": 6100,
      "1024": 6101,
      "_CONNECTOR": 6102,
      "conne": 6103,
      "haxe": 6104,
      "HOST_": 6105,
      "REDIS_": 6106,
      "SUP": 6107,
      "ele": 6108,
      "solu": 6109,
      "asket": 6110,
      "break": 6111,
      "M_": 6112,
      "OB": 6113,
      "cast": 6114,
      "Basket": 6115,
      "R_": 6116,
      "cbd": 6117,
      "rel": 6118,
      "utor": 6119,
      "ospike": 6120,
      "euo": 6121,
      "ASSAND": 6122,
      "alfresco": 6123,
      "aerospike": 6124,
      "Fun": 6125,
      "enger": 6126,
      "206": 6127,
      "bitbucket": 6128,
      "recommended": 6129,
      "izer": 6130,
      "notebooks": 6131,
      "central": 6132,
      "MAJOR_VERSION": 6133,
      "Base": 6134,
      "gis": 6135,
      "USER_NAME": 6136,
      "524": 6137,
      "422": 6138,
      "htop": 6139,
      "/^(": 6140,
      "criu": 6141,
      "metrics": 6142,
      "fony": 6143,
      "mast": 6144,
      "883": 6145,
      "9369": 6146,
      "PKG_": 6147,
      "Add": 6148,
      "uli": 6149,
      "trace": 6150,
      "6194": 6151,
      "ZK": 6152,
      "_BASE_DIR": 6153,
      "servers": 6154,
      "Alex": 6155,
      "embed": 6156,
      "emalloc": 6157,
      "greg": 6158,
      "Api": 6159,
      "ath": 6160,
      "nn": 6161,
      "ACCE": 6162,
      "value": 6163,
      "Dav": 6164,
      "PS": 6165,
      "chris": 6166,
      "febd": 6167,
      "tie": 6168,
      "HASH": 6169,
      "Platform": 6170,
      "savedApt": 6171,
      "savedAptMark": 6172,
      "ime": 6173,
      "jess": 6174,
      "chgrp": 6175,
      "tsuru": 6176,
      "Mart": 6177,
      "ach": 6178,
      "state": 6179,
      "ane": 6180,
      "2011": 6181,
      "initial": 6182,
      "loyd": 6183,
      "executable": 6184,
      "=.": 6185,
      "return": 6186,
      "nature": 6187,
      "phpmyadmin": 6188,
      "rl": 6189,
      "mav": 6190,
      "CMake": 6191,
      "rift": 6192,
      "migrate": 6193,
      "continuum": 6194,
      "ipe": 6195,
      "edd": 6196,
      "2000": 6197,
      "deep": 6198,
      "unpack": 6199,
      "THE": 6200,
      "phere": 6201,
      "272": 6202,
      "GNU": 6203,
      "enter": 6204,
      "568": 6205,
      "DBUILD": 6206,
      "sequ": 6207,
      "adm": 6208,
      "krallin": 6209,
      "EXEC": 6210,
      "APP_NAME": 6211,
      "redmine": 6212,
      "anchors": 6213,
      "Xms": 6214,
      "ffb": 6215,
      "360": 6216,
      "357": 6217,
      "MP": 6218,
      "jam": 6219,
      "libpython": 6220,
      "libmemcached": 6221,
      "iojs": 6222,
      "roup": 6223,
      "BITCOIN": 6224,
      "tomaer": 6225,
      "xj": 6226,
      "PIP": 6227,
      "forward": 6228,
      "125": 6229,
      "println": 6230,
      "GEN": 6231,
      "gie": 6232,
      "VN": 6233,
      "rx": 6234,
      "sasl": 6235,
      "GRADLE_VERSION": 6236,
      "KIBAN": 6237,
      "850": 6238,
      "EGROUND": 6239,
      "Soft": 6240,
      "task": 6241,
      "--,": 6242,
      "informatics": 6243,
      "163": 6244,
      "094": 6245,
      "CCOM": 6246,
      "dfb": 6247,
      "CLOUD": 6248,
      "ical": 6249,
      "psql": 6250,
      "LAY": 6251,
      "SECCOM": 6252,
      "coverage": 6253,
      "_signing": 6254,
      "floyd": 6255,
      "MAX_": 6256,
      "ALPINE_": 6257,
      "065": 6258,
      ";/": 6259,
      "hot": 6260,
      "UE": 6261,
      "dos": 6262,
      "place": 6263,
      "289": 6264,
      "nfs": 6265,
      "021": 6266,
      "_root": 6267,
      "report": 6268,
      "cheduler": 6269,
      "DJ": 6270,
      "gov": 6271,
      "vie": 6272,
      "Max": 6273,
      "dcb": 6274,
      "authenti": 6275,
      "JAVA_JCE": 6276,
      "hs": 6277,
      "ission": 6278,
      "imos": 6279,
      "mad": 6280,
      "godep": 6281,
      "bdb": 6282,
      "myapp": 6283,
      "libgstreamer": 6284,
      "AFOR": 6285,
      "ductor": 6286,
      "assume": 6287,
      "lp": 6288,
      "berus": 6289,
      "tun": 6290,
      "pdo_pgsql": 6291,
      "celery": 6292,
      "ley": 6293,
      "-);": 6294,
      "xorg": 6295,
      "CY": 6296,
      "itu": 6297,
      "pol": 6298,
      "role": 6299,
      "785": 6300,
      "scikit": 6301,
      "CS": 6302,
      "_R": 6303,
      "ati": 6304,
      "infra": 6305,
      "coreos": 6306,
      "odon": 6307,
      "IZE_VERSION": 6308,
      "srd": 6309,
      "vl": 6310,
      "prote": 6311,
      "320": 6312,
      "554": 6313,
      "573": 6314,
      "6819": 6315,
      "DATABASE": 6316,
      "dynamic": 6317,
      "350": 6318,
      "hipster": 6319,
      "purpose": 6320,
      "INC": 6321,
      "874": 6322,
      "Pri": 6323,
      "libsystemd": 6324,
      "cros": 6325,
      "CentOS": 6326,
      "gieia": 6327,
      "sch": 6328,
      "dependency": 6329,
      "mastodon": 6330,
      "273": 6331,
      "613": 6332,
      "RAFOR": 6333,
      "lvm": 6334,
      "106": 6335,
      "hooks": 6336,
      "VIRTU": 6337,
      "033": 6338,
      "deck": 6339,
      "octo": 6340,
      "circ": 6341,
      "Mag": 6342,
      "restart": 6343,
      "voke": 6344,
      "Lite": 6345,
      "thing": 6346,
      "ada": 6347,
      "ioboard": 6348,
      "191": 6349,
      "phen": 6350,
      "raspberrypic": 6351,
      "align": 6352,
      "raspberrypicm": 6353,
      "enablerepo": 6354,
      "asses": 6355,
      "permission": 6356,
      "4036": 6357,
      "CERBER": 6358,
      "817": 6359,
      "jhipster": 6360,
      "gradlew": 6361,
      "ensure": 6362,
      "libreoffice": 6363,
      "liblapack": 6364,
      "342": 6365,
      "nuget": 6366,
      "symfony": 6367,
      "Client": 6368,
      "Star": 6369,
      "nik": 6370,
      "BL": 6371,
      "Xshare": 6372,
      "ulator": 6373,
      "GH": 6374,
      "jemalloc": 6375,
      "ipv": 6376,
      "rict": 6377,
      "739": 6378,
      "xfonts": 6379,
      "MINIFI": 6380,
      "6819007": 6381,
      "889": 6382,
      "CASSAND": 6383,
      "Eeuo": 6384,
      "gnuArch": 6385,
      "Manager": 6386,
      "_CHECK": 6387,
      "fabric": 6388,
      "875": 6389,
      "est": 6390,
      "sar": 6391,
      "buildout": 6392,
      "340": 6393,
      "autoreconf": 6394,
      "_service": 6395,
      "ristian": 6396,
      "123": 6397,
      "raspbian": 6398,
      "broker": 6399,
      "_PASSWORD": 6400,
      "ASC_URL": 6401,
      "945": 6402,
      "LINK": 6403,
      "ham": 6404,
      "sser": 6405,
      "101": 6406,
      "portal": 6407,
      "xmlrpc": 6408,
      "284": 6409,
      "dition": 6410,
      "classes": 6411,
      "jov": 6412,
      "761": 6413,
      "kie": 6414,
      "getProperty": 6415,
      "beam": 6416,
      "FAC": 6417,
      "CHR": 6418,
      "required": 6419,
      "TE_VERSION": 6420,
      "bow": 6421,
      "nd": 6422,
      "anghai": 6423,
      "Installer": 6424,
      "gerrit": 6425,
      "jovyan": 6426,
      "gawk": 6427,
      "libexpat": 6428,
      "282": 6429,
      "KAFKA_HOME": 6430,
      "Software": 6431,
      "tis": 6432,
      "panel": 6433,
      "ARCHIVE": 6434,
      "ZEL": 6435,
      "bx": 6436,
      "inet": 6437,
      "loop": 6438,
      "Program": 6439,
      "DA_": 6440,
      "Fin": 6441,
      "on_": 6442,
      "bats": 6443,
      "direct": 6444,
      "pcntl": 6445,
      "ECRET_": 6446,
      "twisted": 6447,
      "TER_": 6448,
      "fmt": 6449,
      "ero": 6450,
      "luster": 6451,
      "groupinstall": 6452,
      "xygen": 6453,
      "distributions": 6454,
      "standard": 6455,
      "SOURCE_": 6456,
      "Plone": 6457,
      "dotdeb": 6458,
      "passenger": 6459,
      "Functional": 6460,
      "grind": 6461,
      "bioinformatics": 6462,
      "aniel": 6463,
      "gnueabihf": 6464,
      "Git": 6465,
      "dic": 6466,
      "operatorframework": 6467,
      "emacs": 6468,
      "qn": 6469,
      "apc": 6470,
      "ATE": 6471,
      "minus": 6472,
      "AML": 6473,
      "}]": 6474,
      ":///": 6475,
      "407": 6476,
      "nuxeo": 6477,
      "sentry": 6478,
      "seed": 6479,
      "scal": 6480,
      "operators": 6481,
      "liblzma": 6482,
      "bur": 6483,
      "ren": 6484,
      "libt": 6485,
      "abce": 6486,
      "Error": 6487,
      "jinja": 6488,
      "ny": 6489,
      "libmp": 6490,
      "Shanghai": 6491,
      "owncloud": 6492,
      "samba": 6493,
      "aur": 6494,
      "amp": 6495,
      "devops": 6496,
      "component": 6497,
      "libxrender": 6498,
      "clamav": 6499,
      "lighttpd": 6500,
      "gt": 6501,
      "114": 6502,
      "813": 6503,
      "hg": 6504,
      "mss": 6505,
      "ways": 6506,
      "1718": 6507,
      "MODF": 6508,
      "Configure": 6509,
      "ERROR": 6510,
      "pkgs": 6511,
      "aea": 6512,
      "DBUILD_": 6513,
      "(.*": 6514,
      "ecd": 6515,
      "han": 6516,
      "las": 6517,
      "acd": 6518,
      "username": 6519,
      "545": 6520,
      "Admin": 6521,
      "ACCC": 6522,
      "B_": 6523,
      "ALLOW": 6524,
      "9554": 6525,
      "David": 6526,
      "blog": 6527,
      "dmd": 6528,
      "cator": 6529,
      "vimrc": 6530,
      "keystone": 6531,
      "BAZEL": 6532,
      ".$": 6533,
      "ari": 6534,
      "List": 6535,
      "SSH": 6536,
      "osquery": 6537,
      "lxc": 6538,
      "Preference": 6539,
      "cac": 6540,
      "quick": 6541,
      "LITE_VERSION": 6542,
      "rpms": 6543,
      "uploads": 6544,
      "hand": 6545,
      "cona": 6546,
      "TIMEZONE": 6547,
      "herok": 6548,
      "solutions": 6549,
      "_ST": 6550,
      "prof": 6551,
      "TIMEOUT": 6552,
      "iki": 6553,
      "ADDITION": 6554,
      "layout": 6555,
      "opensuse": 6556,
      "dfsg": 6557,
      "344": 6558,
      "RQ": 6559,
      "magent": 6560,
      "expose": 6561,
      "Options": 6562,
      "lcov": 6563,
      "sal": 6564,
      "urm": 6565,
      "NOT": 6566,
      "bextension": 6567,
      "728": 6568,
      "UPLOAD": 6569,
      "babel": 6570,
      "PLUGIN": 6571,
      "255": 6572,
      "caffe": 6573,
      "building": 6574,
      "STEM": 6575,
      "rapid": 6576,
      "daemonize": 6577,
      "919": 6578,
      "Unit": 6579,
      "229": 6580,
      "ebb": 6581,
      "029": 6582,
      "Write": 6583,
      "ONL": 6584,
      "visual": 6585,
      "statsd": 6586,
      "JETT": 6587,
      "credential": 6588,
      "FunctionalTests": 6589,
      "pcp": 6590,
      "local_": 6591,
      "strus": 6592,
      "ADDR": 6593,
      "9319": 6594,
      "6858": 6595,
      "lsof": 6596,
      "blur": 6597,
      "libnss": 6598,
      "_CONFIG_PATH": 6599,
      "BOOL": 6600,
      "ISO": 6601,
      "_tools": 6602,
      "gat": 6603,
      "VERTI": 6604,
      "dbm": 6605,
      "PIC": 6606,
      "3250": 6607,
      "biology": 6608,
      "Container": 6609,
      "932": 6610,
      "serial": 6611,
      "libvorbis": 6612,
      "_hba": 6613,
      "dacd": 6614,
      "1663": 6615,
      "0105": 6616,
      "APACHE_LOG_DIR": 6617,
      "43856": 6618,
      "YP": 6619,
      "ubi": 6620,
      "applications": 6621,
      "BOOTSTR": 6622,
      "Y_HOME": 6623,
      "jack": 6624,
      "4073": 6625,
      "6490": 6626,
      "5617": 6627,
      "617": 6628,
      "Item": 6629,
      "eacc": 6630,
      "integration": 6631,
      "pg_hba": 6632,
      "optim": 6633,
      "78720": 6634,
      "icing": 6635,
      "241663": 6636,
      "06150": 6637,
      "parallel": 6638,
      "165407": 6639,
      "2936858": 6640,
      "542436": 6641,
      "47314": 6642,
      "43856587": 6643,
      "(@": 6644,
      "ities": 6645,
      "ARI": 6646,
      "runit": 6647,
      "hell": 6648,
      "RED": 6649,
      "complete": 6650,
      "*-": 6651,
      "250": 6652,
      "seed_": 6653,
      "update_": 6654,
      "./...": 6655,
      "RQLITE_VERSION": 6656,
      "*)": 6657,
      "5327": 6658,
      "Ber": 6659,
      "blast": 6660,
      "3636": 6661,
      "4332": 6662,
      "acae": 6663,
      "enum": 6664,
      "orig": 6665,
      "DOCKERIZE_VERSION": 6666,
      "mssql": 6667,
      "078": 6668,
      "TRAN": 6669,
      "DFL": 6670,
      "93343": 6671,
      "zelle": 6672,
      "02044": 6673,
      "eff": 6674,
      "shed": 6675,
      "bat": 6676,
      "fecef": 6677,
      "21713": 6678,
      "topdf": 6679,
      "valgrind": 6680,
      "TERRAFOR": 6681,
      "certbot": 6682,
      "199426": 6683,
      "26545": 6684,
      "72480": 6685,
      "7121199426": 6686,
      "5593250": 6687,
      "433293343": 6688,
      "-;": 6689,
      "--]": 6690,
      "tarball": 6691,
      "cey": 6692,
      "istory": 6693,
      "EXTRA_": 6694,
      "LOCALE": 6695,
      "Packages": 6696,
      "Acquire": 6697,
      "MIN": 6698,
      "mind": 6699,
      "profiles": 6700,
      "ZE_": 6701,
      "Description": 6702,
      "641": 6703,
      "1570": 6704,
      "_CH": 6705,
      "7630": 6706,
      "318": 6707,
      "6052": 6708,
      "cni": 6709,
      "jruby": 6710,
      "SETT": 6711,
      "zeromq": 6712,
      "magento": 6713,
      "sin": 6714,
      "coind": 6715,
      "imp": 6716,
      "131": 6717,
      "735": 6718,
      "bioc": 6719,
      "cudnn": 6720,
      "8002": 6721,
      "True": 6722,
      "wkhtmltopdf": 6723,
      "IC_": 6724,
      "gex": 6725,
      "igh": 6726,
      "767": 6727,
      "glot": 6728,
      "nasm": 6729,
      "tdl": 6730,
      "arth": 6731,
      "shi": 6732,
      "bbb": 6733,
      "don": 6734,
      "just": 6735,
      "POSI": 6736,
      "freeb": 6737,
      "5376": 6738,
      "prepare": 6739,
      "ah": 6740,
      "mime": 6741,
      "825": 6742,
      "neb": 6743,
      "qp": 6744,
      "rename": 6745,
      "CESS": 6746,
      "proxy_": 6747,
      "ckan": 6748,
      "unlimited": 6749,
      "conver": 6750,
      "etry": 6751,
      "matter": 6752,
      "mesosphere": 6753,
      "nightly": 6754,
      "IX": 6755,
      "MAN": 6756,
      "pay": 6757,
      "rocket": 6758,
      "scheduler": 6759,
      "sem": 6760,
      "5704": 6761,
      "locks": 6762,
      "Application": 6763,
      "922": 6764,
      "nose": 6765,
      "5634": 6766,
      "ANDROID_NDK": 6767,
      "Frazelle": 6768,
      "Port": 6769,
      "_errors": 6770,
      "ization": 6771,
      "WWW": 6772,
      "VIRTUAL": 6773,
      "Power": 6774,
      "filesystem": 6775,
      "204": 6776,
      "pris": 6777,
      "libltdl": 6778,
      "hygieia": 6779,
      "ceylon": 6780,
      "omi": 6781,
      "cess": 6782,
      "155704": 6783,
      "61085": 6784,
      "060155704": 6785,
      "535634": 6786,
      "pubkey": 6787,
      "libgd": 6788,
      "_CONFIGURE_": 6789,
      "6847630": 6790,
      "565846": 6791,
      "febdbeff": 6792,
      "535634144": 6793,
      "IT_": 6794,
      "_UID": 6795,
      "597": 6796,
      "0215": 6797,
      "led": 6798,
      "openvpn": 6799,
      "_MD": 6800,
      "cloudunit": 6801,
      "DEPLO": 6802,
      "opencv_": 6803,
      "672": 6804,
      "Win": 6805,
      "DEX": 6806,
      "142": 6807,
      "696": 6808,
      "video": 6809,
      "freebsd": 6810,
      "unda": 6811,
      "8456": 6812,
      "suite": 6813,
      "cca": 6814,
      "thrift": 6815,
      "matic": 6816,
      "python_": 6817,
      "ulu": 6818,
      "poetry": 6819,
      "LICATION": 6820,
      "threads": 6821,
      "951": 6822,
      "WR": 6823,
      "iled": 6824,
      "ssword": 6825,
      "glider": 6826,
      "san": 6827,
      "libssh": 6828,
      "dius": 6829,
      "0833": 6830,
      "refs": 6831,
      "097": 6832,
      "obj": 6833,
      "Proc": 6834,
      "_enable": 6835,
      "102": 6836,
      "_CLIENT": 6837,
      "gliderlabs": 6838,
      "ases": 6839,
      "7277": 6840,
      "_TEMP": 6841,
      "326": 6842,
      "uninstall": 6843,
      "while": 6844,
      "percona": 6845,
      ">>/": 6846,
      "signature": 6847,
      "MySQL": 6848,
      "issue": 6849,
      "pypi": 6850,
      "ssi": 6851,
      "ument": 6852,
      "803": 6853,
      "hn": 6854,
      "},": 6855,
      "231": 6856,
      "ARY_NAME": 6857,
      "Mon": 6858,
      "bba": 6859,
      "cil": 6860,
      "726": 6861,
      "LINU": 6862,
      "DS": 6863,
      "redir": 6864,
      "ason": 6865,
      "libasound": 6866,
      "snf": 6867,
      "DISTRIB": 6868,
      "WIL": 6869,
      "nf": 6870,
      "edx_": 6871,
      "525": 6872,
      "462": 6873,
      "style": 6874,
      "RUNC_": 6875,
      "dict": 6876,
      "PAT": 6877,
      "csv": 6878,
      "ppml": 6879,
      "oole": 6880,
      "LoadModule": 6881,
      "heroku": 6882,
      "/(": 6883,
      "gal": 6884,
      "711": 6885,
      "CONSUL_VERSION": 6886,
      "MS": 6887,
      "Uvh": 6888,
      "ctr": 6889,
      "webserver": 6890,
      "RUNC_BUILDTAGS": 6891,
      "457": 6892,
      "Lu": 6893,
      "zk": 6894,
      "libcairo": 6895,
      "GO_T": 6896,
      "unixodbc": 6897,
      "Final": 6898,
      "trun": 6899,
      "amqp": 6900,
      "validate": 6901,
      "qnib": 6902,
      "NEO": 6903,
      "maf": 6904,
      "idget": 6905,
      "libass": 6906,
      "embedded": 6907,
      "456": 6908,
      "JU": 6909,
      "225": 6910,
      "2950": 6911,
      "PUT": 6912,
      "bfa": 6913,
      "hnt": 6914,
      "YARN": 6915,
      "BUILD_DIR": 6916,
      "=.*": 6917,
      "GZ": 6918,
      "zshrc": 6919,
      "514": 6920,
      "912": 6921,
      "nap": 6922,
      "workers": 6923,
      "LES": 6924,
      "secrets": 6925,
      "vscode": 6926,
      "PET": 6927,
      "gon": 6928,
      "mean": 6929,
      "raft": 6930,
      "ioncube": 6931,
      "jupyter_": 6932,
      "authors": 6933,
      "function": 6934,
      "nebra": 6935,
      "AP_": 6936,
      "Joh": 6937,
      "Michael": 6938,
      "6017": 6939,
      "PHPI": 6940,
      "libressl": 6941,
      "collectd": 6942,
      "suggests": 6943,
      "riak": 6944,
      "596": 6945,
      "PEG_VERSION": 6946,
      "privilege": 6947,
      "omics": 6948,
      "edx_ansible": 6949,
      "vite": 6950,
      "see": 6951,
      "sson": 6952,
      "PHP_MAJOR_VERSION": 6953,
      "vpx": 6954,
      "seed_corpus": 6955,
      "glass": 6956,
      "ffa": 6957,
      "SITORY": 6958,
      "9300": 6959,
      "TEST_AIO_": 6960,
      "permissions": 6961,
      "BAR": 6962,
      "_V": 6963,
      "stan": 6964,
      "shop": 6965,
      "SOURCE": 6966,
      "VARI": 6967,
      "Size": 6968,
      "YAML": 6969,
      "daa": 6970,
      "rundeck": 6971,
      "general": 6972,
      "alan": 6973,
      "first": 6974,
      "467": 6975,
      "request": 6976,
      "provider": 6977,
      "False": 6978,
      "jmx": 6979,
      "rie": 6980,
      "P_DIR": 6981,
      "fsSLO": 6982,
      "Bur": 6983,
      "_add": 6984,
      "eli": 6985,
      "rep": 6986,
      "1374": 6987,
      "_COR": 6988,
      "LUDE": 6989,
      "_r": 6990,
      "fcd": 6991,
      "ico": 6992,
      "wand": 6993,
      "foo": 6994,
      "2018": 6995,
      "jupyterhub": 6996,
      "PKG_CONFIG_PATH": 6997,
      "dev_": 6998,
      "2055": 6999,
      "TRUE": 7000,
      "9119": 7001,
      "INFLU": 7002,
      "LDA": 7003,
      "REVI": 7004,
      "BASE_URL": 7005,
      "Allow": 7006,
      "Cust": 7007,
      "O_VERSION": 7008,
      "mag": 7009,
      "tesser": 7010,
      "lit": 7011,
      "193": 7012,
      "_SUP": 7013,
      "workflow": 7014,
      "CONFLU": 7015,
      "documentation": 7016,
      "Sw": 7017,
      "zulu": 7018,
      "confluent": 7019,
      "_CROS": 7020,
      "boost_": 7021,
      "_max_files": 7022,
      "ZOOKE": 7023,
      "DISABLE_": 7024,
      "414": 7025,
      "socks": 7026,
      "reg": 7027,
      "ON_": 7028,
      "des": 7029,
      "divert": 7030,
      "house": 7031,
      "903": 7032,
      "Magick": 7033,
      "371": 7034,
      "|$": 7035,
      "2010": 7036,
      "6399": 7037,
      "osx": 7038,
      "rpmbuild": 7039,
      "upload_max_files": 7040,
      "/?": 7041,
      "486": 7042,
      "dan": 7043,
      "strong": 7044,
      "LIST": 7045,
      "MAVEN_HOME": 7046,
      "bluray": 7047,
      "433": 7048,
      "Do": 7049,
      "libbluray": 7050,
      "URA": 7051,
      "block": 7052,
      "mhart": 7053,
      "ZE_DEPS": 7054,
      "WILDFL": 7055,
      "PHPIZE_DEPS": 7056,
      "tutum": 7057,
      "doxygen": 7058,
      "PIL": 7059,
      "LATFORMS": 7060,
      "activ": 7061,
      "LASSPATH": 7062,
      "675": 7063,
      "gear": 7064,
      "precompile": 7065,
      "nodejs_": 7066,
      "8859": 7067,
      "FL": 7068,
      "_hosts": 7069,
      "aae": 7070,
      "flink": 7071,
      "192": 7072,
      "UTION": 7073,
      "Wl": 7074,
      "GROUP_": 7075,
      "undation": 7076,
      "tasks": 7077,
      "libgdbm": 7078,
      "SPLATFORMS": 7079,
      "privileged": 7080,
      "Bio": 7081,
      "228": 7082,
      "app_": 7083,
      "1391": 7084,
      "sdkmanager": 7085,
      "travis": 7086,
      "HOSTNAME": 7087,
      "quest": 7088,
      "VARIANT": 7089,
      "tesseract": 7090,
      "519": 7091,
      "Blocks": 7092,
      "unter": 7093,
      "libnet": 7094,
      "3062": 7095,
      "types": 7096,
      "LOCK": 7097,
      "luc": 7098,
      "xvid": 7099,
      "GALAXY_": 7100,
      "Source": 7101,
      "vin": 7102,
      "shut": 7103,
      "207": 7104,
      "ebc": 7105,
      "d_party": 7106,
      "aadf": 7107,
      "85273": 7108,
      "Command": 7109,
      "72771391": 7110,
      "727713911570": 7111,
      "URI": 7112,
      "ton": 7113,
      "REMO": 7114,
      "google_": 7115,
      "RUBY_": 7116,
      "cpanminus": 7117,
      "REGISTRY_COMMIT": 7118,
      "cfa": 7119,
      "bez": 7120,
      "1504": 7121,
      "P_PATH": 7122,
      "router": 7123,
      "glassfish": 7124,
      "Out": 7125,
      "psmisc": 7126,
      "cloak": 7127,
      "_TO": 7128,
      "INSTALL_BIN": 7129,
      "LLVM": 7130,
      "cora": 7131,
      "apr": 7132,
      "5386": 7133,
      "tcz": 7134,
      "php_": 7135,
      "6623": 7136,
      "ERLANG_VERSION": 7137,
      "connection": 7138,
      "Wor": 7139,
      "ffca": 7140,
      "gy": 7141,
      "pure": 7142,
      "}:": 7143,
      "ssmtp": 7144,
      "129": 7145,
      "935": 7146,
      "_PLU": 7147,
      "FOREGROUND": 7148,
      "ain": 7149,
      "ility": 7150,
      "links": 7151,
      "JDK_VERSION": 7152,
      "TARGETPLATFORM": 7153,
      "uro": 7154,
      "cee": 7155,
      "IT_VERSION": 7156,
      "And": 7157,
      "215": 7158,
      "Amer": 7159,
      "ONLOAD": 7160,
      "amr": 7161,
      "STAR": 7162,
      "volume": 7163,
      "DRIVER_VERSION": 7164,
      "_CACHE_": 7165,
      "TMPDIR": 7166,
      "deimos": 7167,
      "unlink": 7168,
      "tos": 7169,
      "338": 7170,
      "6864": 7171,
      "couchbase": 7172,
      "analysis": 7173,
      "berg": 7174,
      "tlas": 7175,
      "ORACLE_": 7176,
      "Shell": 7177,
      "stab": 7178,
      "keycloak": 7179,
      "1021": 7180,
      "1234": 7181,
      "Invoke": 7182,
      "Environment": 7183,
      "815": 7184,
      "Lab": 7185,
      "rmi": 7186,
      "consum": 7187,
      "BuildingBlocks": 7188,
      "@${": 7189,
      "curse": 7190,
      "skia": 7191,
      "product": 7192,
      "zts": 7193,
      "untrusted": 7194,
      "httpredir": 7195,
      "7892": 7196,
      "220": 7197,
      "3485": 7198,
      "audio": 7199,
      "PHP_SHA": 7200,
      "INCLUDE": 7201,
      "bezium": 7202,
      "ern": 7203,
      "mel": 7204,
      "ups": 7205,
      "faker": 7206,
      "2181": 7207,
      "bce": 7208,
      "meter": 7209,
      "113": 7210,
      "8443": 7211,
      "sist": 7212,
      "DOCKER_USER": 7213,
      "straint": 7214,
      "inotify": 7215,
      "third_party": 7216,
      "368": 7217,
      "mask": 7218,
      "auth_": 7219,
      "manifests": 7220,
      "DEST": 7221,
      "result": 7222,
      "frees": 7223,
      "3873": 7224,
      "8741": 7225,
      "nbextension": 7226,
      "ENV_ROOT": 7227,
      "9096": 7228,
      "750": 7229,
      "316": 7230,
      "phalcon": 7231,
      "3067": 7232,
      "FFM": 7233,
      "3410": 7234,
      "libxext": 7235,
      "msg": 7236,
      "532": 7237,
      "SK": 7238,
      "decora": 7239,
      "constraint": 7240,
      "1639": 7241,
      "web_": 7242,
      "9902": 7243,
      "AWS_": 7244,
      "PROTO_VERSION": 7245,
      "libmagickwand": 7246,
      "cdec": 7247,
      "asci": 7248,
      "7576": 7249,
      "5808": 7250,
      "0230": 7251,
      "futures": 7252,
      "),": 7253,
      "pv": 7254,
      "6407": 7255,
      "8424": 7256,
      "4067": 7257,
      "ECT": 7258,
      "AMP": 7259,
      "NPM_CONFIG_": 7260,
      "INFLUX": 7261,
      "shutdown": 7262,
      "cial": 7263,
      "jour": 7264,
      "cafd": 7265,
      "boo": 7266,
      "sysv": 7267,
      "locked": 7268,
      "INSTALL_BINARY_NAME": 7269,
      "libdev": 7270,
      "respon": 7271,
      "10000": 7272,
      "2019": 7273,
      "GL": 7274,
      "PRI": 7275,
      "ZMQ": 7276,
      "dor": 7277,
      "libtheora": 7278,
      "9999": 7279,
      "3293": 7280,
      "luajit": 7281,
      "OV": 7282,
      "VOR": 7283,
      "city": 7284,
      "dcab": 7285,
      "ius": 7286,
      "built": 7287,
      "fork": 7288,
      "569": 7289,
      "acbc": 7290,
      "9483": 7291,
      "9605": 7292,
      "UPDATE": 7293,
      "identifi": 7294,
      "0161": 7295,
      "47968": 7296,
      "Id": 7297,
      "_workspace": 7298,
      "look": 7299,
      "ELIN": 7300,
      "LIBBL": 7301,
      "9608": 7302,
      "9214": 7303,
      "scanner": 7304,
      "NPM_VERSION": 7305,
      "LIBBLURA": 7306,
      "4784": 7307,
      "8807": 7308,
      "hpi": 7309,
      "yi": 7310,
      "beab": 7311,
      "1290": 7312,
      "ffde": 7313,
      "0273": 7314,
      "freetds": 7315,
      "traffi": 7316,
      "MODE": 7317,
      "bfef": 7318,
      "sequence": 7319,
      "views": 7320,
      "-)": 7321,
      "cript": 7322,
      "libkrb": 7323,
      "7126": 7324,
      "ccccb": 7325,
      "4757": 7326,
      "defda": 7327,
      "5107": 7328,
      "stubs": 7329,
      "9227": 7330,
      "America": 7331,
      "4148": 7332,
      "81611": 7333,
      "953": 7334,
      "JIR": 7335,
      "_DE": 7336,
      "adefda": 7337,
      "remi": 7338,
      "569096": 7339,
      "08244": 7340,
      "18979": 7341,
      "21772": 7342,
      "708850": 7343,
      "17928": 7344,
      "17003": 7345,
      "ebbbcd": 7346,
      "23890": 7347,
      "60130": 7348,
      "52580": 7349,
      "893873": 7350,
      "329902": 7351,
      "54436": 7352,
      "546623": 7353,
      "430161": 7354,
      "3484": 7355,
      "3452": 7356,
      "74264": 7357,
      "55820": 7358,
      "55533": 7359,
      "440230": 7360,
      "506781": 7361,
      "94289": 7362,
      "957854": 7363,
      "873293": 7364,
      "4856": 7365,
      "rabbitmq_": 7366,
      "2759": 7367,
      "ffcbf": 7368,
      "779188": 7369,
      "32175": 7370,
      "37028": 7371,
      "370229": 7372,
      "8007215": 7373,
      "1185808": 7374,
      "56280": 7375,
      "546702": 7376,
      "efaa": 7377,
      "4602055": 7378,
      "3668": 7379,
      "36676": 7380,
      "938560": 7381,
      "09961": 7382,
      "fafba": 7383,
      "2728456": 7384,
      "350568": 7385,
      "7398424": 7386,
      "bowtie": 7387,
      "344736": 7388,
      "919467": 7389,
      "932546623": 7390,
      "672445": 7391,
      "09756280": 7392,
      "37179": 7393,
      "1504696": 7394,
      "6864136": 7395,
      "102123890": 7396,
      "960579": 7397,
      "9608495": 7398,
      "816117126": 7399,
      "56909621": 7400,
      "601303067": 7401,
      "558203452": 7402,
      "4402309227": 7403,
      "800721595": 7404,
      "118580872": 7405,
      "73984242011": 7406,
      "102123890506781": 7407,
      "NEW": 7408,
      "OC": 7409,
      "eac": 7410,
      "lts": 7411,
      "studio": 7412,
      "}.${": 7413,
      "bzr": 7414,
      "PROCESS": 7415,
      "APACHE_RUN_USER": 7416,
      "859": 7417,
      "aed": 7418,
      "hawk": 7419,
      "kill": 7420,
      "rar": 7421,
      "pix": 7422,
      "sharing": 7423,
      "vitess": 7424,
      "libdevmapper": 7425,
      "insecure": 7426,
      "adapt": 7427,
      "blue": 7428,
      "train": 7429,
      "memory_limit": 7430,
      "short": 7431,
      "ADMIN_": 7432,
      "Ls": 7433,
      "_KEY": 7434,
      "unk": 7435,
      "cated": 7436,
      "apd": 7437,
      "libpcap": 7438,
      "trunk": 7439,
      "880": 7440,
      "ENTI": 7441,
      "angular": 7442,
      "5555": 7443,
      "swap": 7444,
      "HDF": 7445,
      "WORK_DIR": 7446,
      "DEPEND": 7447,
      "launcher": 7448,
      "404": 7449,
      "870": 7450,
      "XCB": 7451,
      "macros": 7452,
      "nome": 7453,
      "iper": 7454,
      "dav": 7455,
      "160": 7456,
      "OPENSSL_VERSION": 7457,
      "BDB": 7458,
      "nr": 7459,
      "VISIB": 7460,
      "assembly": 7461,
      "regex": 7462,
      "named": 7463,
      "cdh": 7464,
      "Password": 7465,
      "/:/": 7466,
      "Up": 7467,
      "ENGIN": 7468,
      "APT_MIRROR": 7469,
      "HEL": 7470,
      "261": 7471,
      "###": 7472,
      "547": 7473,
      "WEB_": 7474,
      "litt": 7475,
      "feed": 7476,
      "failed": 7477,
      "ffee": 7478,
      "dea": 7479,
      "tax": 7480,
      "gob": 7481,
      "WORKSPACE": 7482,
      "oso": 7483,
      "discovery": 7484,
      "subst": 7485,
      "_PKG_VERSION": 7486,
      "bigtop": 7487,
      "APACHE_RUN_GROUP": 7488,
      "LDAP_": 7489,
      "PORT_": 7490,
      "game": 7491,
      "Inc": 7492,
      "sli": 7493,
      "installation": 7494,
      "acme": 7495,
      "hex": 7496,
      "042": 7497,
      "puppetlabs": 7498,
      "MEMOR": 7499,
      "gregator": 7500,
      "TERRAFORM_VERSION": 7501,
      "arin": 7502,
      "2048": 7503,
      "AGE_VERSION": 7504,
      "^(": 7505,
      "font": 7506,
      "ERUSER": 7507,
      "usb": 7508,
      "0440": 7509,
      "post_max_": 7510,
      "STREAM": 7511,
      "p_": 7512,
      "437": 7513,
      "indigo": 7514,
      "/,": 7515,
      "Off": 7516,
      "Peter": 7517,
      "RUS": 7518,
      "bbc": 7519,
      "pres": 7520,
      "maps": 7521,
      "tach": 7522,
      "805": 7523,
      "8400": 7524,
      "snake": 7525,
      "uri": 7526,
      "digit": 7527,
      "term": 7528,
      "606": 7529,
      "db_": 7530,
      "interaction": 7531,
      "banner": 7532,
      "SYSTEM": 7533,
      "PROJECT": 7534,
      "Policy": 7535,
      "ocr": 7536,
      "BAE": 7537,
      "cgroup": 7538,
      "pony": 7539,
      "xfz": 7540,
      "geoserver": 7541,
      "SETTING": 7542,
      "vc": 7543,
      "sea": 7544,
      "iell": 7545,
      "slurm": 7546,
      "POSIX": 7547,
      "iko": 7548,
      "libxtst": 7549,
      "fakeroot": 7550,
      "071": 7551,
      "tpl": 7552,
      "libvirt": 7553,
      "729": 7554,
      "phy": 7555,
      "check_": 7556,
      "VAUL": 7557,
      "sbcl": 7558,
      "369": 7559,
      "mid": 7560,
      "libhdf": 7561,
      "drone": 7562,
      "http_proxy": 7563,
      "PLONE_VERSION": 7564,
      "UnitTests": 7565,
      "_output": 7566,
      "ting": 7567,
      "coffee": 7568,
      "ulo": 7569,
      "uel": 7570,
      "need": 7571,
      "COMPOSER_HOME": 7572,
      "acb": 7573,
      "omni": 7574,
      "drivers": 7575,
      "_rsa_key": 7576,
      "signed": 7577,
      "videolan": 7578,
      "pilot": 7579,
      "yu": 7580,
      "alendar": 7581,
      "daf": 7582,
      "/:$": 7583,
      "liber": 7584,
      "ape": 7585,
      "6380": 7586,
      "Godeps": 7587,
      "gray": 7588,
      "known_hosts": 7589,
      "ssh_host_rsa_key": 7590,
      "_F": 7591,
      "_latest": 7592,
      "gc": 7593,
      "nss": 7594,
      "vsf": 7595,
      "incu": 7596,
      "reli": 7597,
      "iph": 7598,
      "cpio": 7599,
      "profil": 7600,
      "SOLR_": 7601,
      "techno": 7602,
      "Col": 7603,
      "_conf": 7604,
      "kur": 7605,
      "cerberus": 7606,
      "os_": 7607,
      "INSTALL_M": 7608,
      "USER_UID": 7609,
      "616": 7610,
      "924": 7611,
      "GF": 7612,
      "pie": 7613,
      "ross": 7614,
      "platforms": 7615,
      "MIRROR": 7616,
      "ax": 7617,
      "cba": 7618,
      "ipfs": 7619,
      "Shop": 7620,
      "illow": 7621,
      "libatlas": 7622,
      "fix_path": 7623,
      "PHP_CFLAGS": 7624,
      "_minimal": 7625,
      "spool": 7626,
      "SIG": 7627,
      "envsubst": 7628,
      "fix_pathinfo": 7629,
      "Back": 7630,
      "ZI": 7631,
      "file_": 7632,
      "plan": 7633,
      "torrent": 7634,
      "MYSQL_VERSION": 7635,
      "ZEPP": 7636,
      "ECRET": 7637,
      "BAZEL_VERSION": 7638,
      "_time": 7639,
      "cour": 7640,
      "snappy": 7641,
      "Cache": 7642,
      "New": 7643,
      "cts": 7644,
      "ference": 7645,
      "mapre": 7646,
      "noinput": 7647,
      "commands": 7648,
      "NO_": 7649,
      "random": 7650,
      "_COMMAND": 7651,
      "plex": 7652,
      "Auth": 7653,
      "upload_max_filesize": 7654,
      "ES_VERSION": 7655,
      "HIV": 7656,
      "caf": 7657,
      "openmpi": 7658,
      "nlp": 7659,
      "gpu": 7660,
      "_SHAR": 7661,
      "torn": 7662,
      "ImageMagick": 7663,
      "V_VERSION": 7664,
      "wt": 7665,
      "widget": 7666,
      "unset": 7667,
      "adopt": 7668,
      "STI": 7669,
      "pler": 7670,
      "uguy": 7671,
      "IBI": 7672,
      "NF": 7673,
      "QL": 7674,
      "Sug": 7675,
      "irc": 7676,
      "esac": 7677,
      "ghostscript": 7678,
      "Doc": 7679,
      "rock": 7680,
      "zu": 7681,
      "nodemon": 7682,
      "config_": 7683,
      "mpro": 7684,
      "DISP": 7685,
      "andre": 7686,
      "PROCESSOR": 7687,
      "676": 7688,
      "Gu": 7689,
      "nup": 7690,
      "ardo": 7691,
      "JAVA_CONNECTOR": 7692,
      "aliases": 7693,
      "_sse": 7694,
      "MYSQL_JAVA_CONNECTOR": 7695,
      "KUBE_": 7696,
      "413": 7697,
      "BOO": 7698,
      "ssl_module": 7699,
      "requiretty": 7700,
      "RELEASE_": 7701,
      "BLA": 7702,
      "_sdk": 7703,
      "nova": 7704,
      "cpuguy": 7705,
      "acl": 7706,
      "STAB": 7707,
      "AF_VERSION": 7708,
      "PGDATA": 7709,
      "contact": 7710,
      "Action": 7711,
      "Dskip": 7712,
      "RUNTIME_": 7713,
      "COUN": 7714,
      "executor": 7715,
      "biotools": 7716,
      "bowerrc": 7717,
      "KERNEL_VERSION": 7718,
      "osxcross": 7719,
      "%>": 7720,
      "OUND": 7721,
      "TK": 7722,
      "_exporter": 7723,
      "LIBP": 7724,
      "processor": 7725,
      "EMAIL": 7726,
      "DEPENDEN": 7727,
      "VISIBLE": 7728,
      "543": 7729,
      "<%": 7730,
      "Loc": 7731,
      "SUB": 7732,
      "smo": 7733,
      "132": 7734,
      "logback": 7735,
      "DL": 7736,
      "Java": 7737,
      "lc": 7738,
      "asn": 7739,
      "swoole": 7740,
      "BASE_VERSION": 7741,
      "fastq": 7742,
      "tables": 7743,
      "6180": 7744,
      "CAR": 7745,
      "SR": 7746,
      "_SY": 7747,
      "DCFD": 7748,
      "555": 7749,
      "vpnkit": 7750,
      "shadowsocks": 7751,
      "TS_": 7752,
      "calendar": 7753,
      "hib": 7754,
      "ved": 7755,
      "_linux_": 7756,
      "CHROME": 7757,
      "page": 7758,
      "urin": 7759,
      "getconf": 7760,
      "runserver": 7761,
      "166": 7762,
      "appuser": 7763,
      "and_": 7764,
      "shinken": 7765,
      "FT_VERSION": 7766,
      "med": 7767,
      "libvpx": 7768,
      "Force": 7769,
      "dbf": 7770,
      "sqlsrv": 7771,
      "_USERNAME": 7772,
      "xvfz": 7773,
      "shinn": 7774,
      "ARCHIVE_": 7775,
      "ngx_http_": 7776,
      "identifiers": 7777,
      "Iden": 7778,
      "reset": 7779,
      "083": 7780,
      "cloj": 7781,
      "andyshinn": 7782,
      "Fran": 7783,
      "nmap": 7784,
      "rand": 7785,
      "anno": 7786,
      "aven": 7787,
      "ETYP": 7788,
      "ized": 7789,
      "bioconductor": 7790,
      "LOGLEVEL": 7791,
      "bash_completion": 7792,
      "journal": 7793,
      "=.*/": 7794,
      "scl_enable": 7795,
      "ivh": 7796,
      "pagespeed": 7797,
      "drej": 7798,
      "tornado": 7799,
      "Ni": 7800,
      "xh": 7801,
      "contra": 7802,
      "_USER_HOME": 7803,
      "_CONFIGURE_ARGS": 7804,
      "PU": 7805,
      "VERSION_": 7806,
      "buildroot": 7807,
      "748": 7808,
      "order": 7809,
      "DNS": 7810,
      "322": 7811,
      "572": 7812,
      "NEX": 7813,
      "games": 7814,
      "libjfx": 7815,
      "/...": 7816,
      "_PORT_": 7817,
      "cloudera": 7818,
      "_NPROCESSOR": 7819,
      "jfxrt": 7820,
      "GALAXY": 7821,
      "wind": 7822,
      "gpgcheck": 7823,
      "opensource": 7824,
      "creation": 7825,
      "DATA_": 7826,
      "1337": 7827,
      "bwa": 7828,
      "libdb": 7829,
      "NOTF": 7830,
      "bitcoind": 7831,
      "395": 7832,
      "activator": 7833,
      "NOTFOUND": 7834,
      "(/": 7835,
      "JSON": 7836,
      "V_": 7837,
      "convert": 7838,
      "nodes": 7839,
      "apply": 7840,
      "::=--": 7841,
      "CREATE": 7842,
      "DEPLOY": 7843,
      "_TOKEN": 7844,
      "libjavafx": 7845,
      "libpris": 7846,
      "fff": 7847,
      "libglass": 7848,
      "ARANGO_PACKAGE": 7849,
      "SONARQUBE_HOME": 7850,
      "663": 7851,
      "fran": 7852,
      "shellcheck": 7853,
      "APT_": 7854,
      "HUBB": 7855,
      "372": 7856,
      "atype": 7857,
      "pra": 7858,
      "chi": 7859,
      "mob": 7860,
      "adf": 7861,
      "svg": 7862,
      "FREETYP": 7863,
      "jm": 7864,
      "oe": 7865,
      "libfx": 7866,
      "INFO_": 7867,
      "DEB_BUILD_": 7868,
      "cbf": 7869,
      "ffix": 7870,
      "Dev": 7871,
      "monkey": 7872,
      "SBT_VERSION": 7873,
      "decora_sse": 7874,
      "819": 7875,
      "All": 7876,
      "LD": 7877,
      "gluster": 7878,
      "libdecora_sse": 7879,
      "lam": 7880,
      "emsdk": 7881,
      "REQU": 7882,
      "537": 7883,
      "S_ONL": 7884,
      "IBB": 7885,
      "pulsar": 7886,
      "ACCESS_": 7887,
      "libprism_": 7888,
      "libfxplugins": 7889,
      "SOR": 7890,
      "Time": 7891,
      "gI": 7892,
      "ncb": 7893,
      "step": 7894,
      "catch": 7895,
      "cec": 7896,
      "6876": 7897,
      "ovs": 7898,
      "SWIFT_PLATFORM": 7899,
      "xJf": 7900,
      "505": 7901,
      "986": 7902,
      "_filter": 7903,
      "aded": 7904,
      "ei": 7905,
      "high": 7906,
      "jl": 7907,
      "vhost": 7908,
      "meson": 7909,
      "addition": 7910,
      "9090": 7911,
      "ansible_": 7912,
      "CONSUL_": 7913,
      "bond": 7914,
      "PERL": 7915,
      "914": 7916,
      "pho": 7917,
      "cate": 7918,
      "based": 7919,
      "resses": 7920,
      "305": 7921,
      "sonatype": 7922,
      "neut": 7923,
      "folder": 7924,
      "CASSANDR": 7925,
      "vsftpd": 7926,
      "375": 7927,
      "FLU": 7928,
      "bare": 7929,
      "other": 7930,
      "arrow": 7931,
      "703": 7932,
      "BASH": 7933,
      "rhscl": 7934,
      "Identity": 7935,
      "VP": 7936,
      "efi": 7937,
      "ARTI": 7938,
      "impi": 7939,
      "refresh": 7940,
      "suffix": 7941,
      "ATOR": 7942,
      "698": 7943,
      "APP_PATH": 7944,
      "ushi": 7945,
      "dhcp": 7946,
      "cloudf": 7947,
      "impish": 7948,
      "pb": 7949,
      "robot": 7950,
      "223": 7951,
      "292": 7952,
      "RUBY_MAJOR": 7953,
      "BITCOIN_DATA": 7954,
      "_signing_key": 7955,
      "kra": 7956,
      "zend": 7957,
      "think": 7958,
      "DIA": 7959,
      "cdf": 7960,
      "hoo": 7961,
      "ograph": 7962,
      "Request": 7963,
      "Downloads": 7964,
      "itude": 7965,
      "518": 7966,
      "839": 7967,
      "XVID": 7968,
      "lfs": 7969,
      "yasm": 7970,
      "mole": 7971,
      "setenv": 7972,
      "1769": 7973,
      "weave": 7974,
      "oraclelinux": 7975,
      "_MAX_": 7976,
      "VORBI": 7977,
      "DskipTests": 7978,
      "clojure": 7979,
      "_c": 7980,
      "_IMAGE": 7981,
      "alert": 7982,
      "phpenv": 7983,
      "E_DIR": 7984,
      "SH_": 7985,
      "karaf": 7986,
      "Suggests": 7987,
      "_NPROCESSORS_ONL": 7988,
      "_NPROCESSORS_ONLN": 7989,
      "1100": 7990,
      "TOOL": 7991,
      "_BASE": 7992,
      "actions": 7993,
      "181": 7994,
      "005": 7995,
      "Inter": 7996,
      "texinfo": 7997,
      "artifactory": 7998,
      "CP_": 7999,
      "afe": 8000,
      "fri": 8001,
      "7932": 8002,
      "948": 8003,
      "DOWNLOAD_SHA": 8004,
      "Cre": 8005,
      "tutor": 8006,
      "set_": 8007,
      "containerpilot": 8008,
      "PHAN": 8009,
      "gemspec": 8010,
      "HostKey": 8011,
      "athon": 8012,
      "oy": 8013,
      "chroot": 8014,
      "sey": 8015,
      "libev": 8016,
      "LIBZMQ": 8017,
      "matrix": 8018,
      "temurin": 8019,
      "PowerShell": 8020,
      "ondrej": 8021,
      "linux_signing_key": 8022,
      "246": 8023,
      "LIBAR": 8024,
      "dyn": 8025,
      "ensurepip": 8026,
      "ncbi": 8027,
      "lea": 8028,
      "iga": 8029,
      "OPENREST": 8030,
      "THEOR": 8031,
      "cilium": 8032,
      "GROUP_ID": 8033,
      "354": 8034,
      "tv": 8035,
      "mate": 8036,
      "APPLICATION": 8037,
      "consul_": 8038,
      "NAGI": 8039,
      "Sil": 8040,
      "kal": 8041,
      "ool": 8042,
      "libselinux": 8043,
      "aptitude": 8044,
      "compute": 8045,
      "DBC": 8046,
      "_MINOR_VERSION": 8047,
      "SCRIPTION": 8048,
      "TEN": 8049,
      "cde": 8050,
      "flix": 8051,
      "erp": 8052,
      "prim": 8053,
      "irssi": 8054,
      "sendmail": 8055,
      "Libr": 8056,
      "magic": 8057,
      "Dpkg": 8058,
      "wer": 8059,
      "buildbot": 8060,
      "602": 8061,
      "serf": 8062,
      "ating": 8063,
      "argon": 8064,
      "flat": 8065,
      "pipenv": 8066,
      "perim": 8067,
      "audit": 8068,
      "Package": 8069,
      "Authenti": 8070,
      "VIDSTAB": 8071,
      "tutorial": 8072,
      "LIBARIBB": 8073,
      "ped": 8074,
      "wall": 8075,
      "BUCKET": 8076,
      "catkin": 8077,
      "keras": 8078,
      "dropbox": 8079,
      "rwX": 8080,
      "ISSION": 8081,
      "neutron": 8082,
      "117": 8083,
      "921": 8084,
      "tao": 8085,
      "Dep": 8086,
      "plor": 8087,
      "PHP_ASC_URL": 8088,
      "../../": 8089,
      "PHANTOM": 8090,
      "Ben": 8091,
      "[^": 8092,
      "nz": 8093,
      "ingen": 8094,
      "perio": 8095,
      "saml": 8096,
      "ander": 8097,
      "keyrings": 8098,
      "_REGISTRY": 8099,
      "================================": 8100,
      "rmiregistry": 8101,
      "DISPLAY": 8102,
      "013": 8103,
      "CN": 8104,
      "None": 8105,
      "ek": 8106,
      "gar": 8107,
      "ten": 8108,
      "})": 8109,
      "tutils": 8110,
      "ces": 8111,
      "FRIBI": 8112,
      "elp": 8113,
      "jenkins_home": 8114,
      "Env": 8115,
      "FRIBIDI": 8116,
      "DCE": 8117,
      "libsdl": 8118,
      "title": 8119,
      "DCEVM": 8120,
      "MX": 8121,
      "cis": 8122,
      "chen": 8123,
      "291": 8124,
      "egg": 8125,
      "TOMCAT_MAJOR": 8126,
      "markdown": 8127,
      "BUNDL": 8128,
      "ARTIFAC": 8129,
      "MINOR": 8130,
      "PLA": 8131,
      "fPIC": 8132,
      "gstreamer": 8133,
      "gperf": 8134,
      "libpango": 8135,
      "until": 8136,
      "Code": 8137,
      "################################################################": 8138,
      "He": 8139,
      "Hash": 8140,
      "nim": 8141,
      "PAN": 8142,
      "168": 8143,
      "_TEST": 8144,
      "post_max_size": 8145,
      "_toolchain": 8146,
      "gomp": 8147,
      "most": 8148,
      "idoc": 8149,
      "lok": 8150,
      "Main": 8151,
      "MAIL": 8152,
      "VIRTUAL_ENV": 8153,
      "HAP": 8154,
      "RS": 8155,
      "fdc": 8156,
      "2252": 8157,
      "awiki": 8158,
      "LIBVIDSTAB": 8159,
      "STI_SCRIPTS_PATH": 8160,
      "028": 8161,
      "864": 8162,
      "Sushi": 8163,
      "_ag": 8164,
      "jun": 8165,
      "ront": 8166,
      "cow": 8167,
      "libjson": 8168,
      "UBUN": 8169,
      "PHP_EXTRA": 8170,
      "HADOOP_CONF_DIR": 8171,
      "ZOOKEEP": 8172,
      "940": 8173,
      "Fuzz": 8174,
      "WIN": 8175,
      "ENSION": 8176,
      "inger": 8177,
      "ristop": 8178,
      "7501": 8179,
      "037": 8180,
      "rypto": 8181,
      "listen_add": 8182,
      "ORIENTDB_DOWNLOAD": 8183,
      "EDE": 8184,
      "edi": 8185,
      "jjs": 8186,
      "vv": 8187,
      "cko": 8188,
      "nash": 8189,
      "ntSushi": 8190,
      "DOCUM": 8191,
      "circle": 8192,
      "_TEMPLAT": 8193,
      "BurntSushi": 8194,
      "_to": 8195,
      "cock": 8196,
      "---": 8197,
      "pg_": 8198,
      "MES": 8199,
      "wekan": 8200,
      "962": 8201,
      "slapd": 8202,
      "syncthing": 8203,
      "tcpdump": 8204,
      "CURL": 8205,
      "F_VERSION": 8206,
      "2338": 8207,
      "buffer": 8208,
      "UBUNTU": 8209,
      "677": 8210,
      "Post": 8211,
      "motd": 8212,
      "pos": 8213,
      "psu": 8214,
      "enable_": 8215,
      "83545": 8216,
      "lockfile": 8217,
      "strator": 8218,
      "terraform_": 8219,
      "WARN": 8220,
      "ALPINE_GLIBC_": 8221,
      "273792": 8222,
      "MARI": 8223,
      "_image": 8224,
      "_src": 8225,
      "libdir": 8226,
      "0037": 8227,
      "sody": 8228,
      "qtbase": 8229,
      "GIT_COMMIT": 8230,
      "SWIG": 8231,
      "small": 8232,
      "CUDA_PKG_VERSION": 8233,
      "Windows": 8234,
      "graylog": 8235,
      "356": 8236,
      "WA": 8237,
      "THRI": 8238,
      "7553": 8239,
      "requireds": 8240,
      "448": 8241,
      "john": 8242,
      "INSTALL_PATH": 8243,
      "riter": 8244,
      "705": 8245,
      "golint": 8246,
      "rol": 8247,
      "streams": 8248,
      "playground": 8249,
      "paramiko": 8250,
      "ELASTICSEARCH_VERSION": 8251,
      "gorith": 8252,
      "],": 8253,
      "debezium": 8254,
      "progra": 8255,
      "typescript": 8256,
      "0935": 8257,
      "ATE_": 8258,
      "attach": 8259,
      "981": 8260,
      "[${": 8261,
      "chart": 8262,
      "tester": 8263,
      "4937": 8264,
      "prosody": 8265,
      "inder": 8266,
      "_SR": 8267,
      "transform": 8268,
      "6081": 8269,
      "EXTENSION": 8270,
      "ZK_HOME": 8271,
      "CYGN": 8272,
      "489": 8273,
      "41611": 8274,
      "Fl": 8275,
      "Sim": 8276,
      "ing_": 8277,
      "ported": 8278,
      "844": 8279,
      "247553": 8280,
      "dfdfe": 8281,
      "toolshed": 8282,
      "300928": 8283,
      "77813": 8284,
      "bash_profile": 8285,
      "pulse": 8286,
      "DJANGO_": 8287,
      "5257932": 8288,
      "24755377813": 8289,
      "30092825": 8290,
      "ctype": 8291,
      "libgit": 8292,
      "account": 8293,
      "finder": 8294,
      "nonroot": 8295,
      "colas": 8296,
      "311": 8297,
      "4333": 8298,
      "Elast": 8299,
      "GC": 8300,
      "Non": 8301,
      "Val": 8302,
      "]+": 8303,
      "gg": 8304,
      "shm": 8305,
      "lij": 8306,
      "tio": 8307,
      "155": 8308,
      "737": 8309,
      "_size": 8310,
      "KAFKA_": 8311,
      "samples": 8312,
      "JCEPolicy": 8313,
      "collectstatic": 8314,
      "UnlimitedJCEPolicy": 8315,
      "forwarder": 8316,
      "NPM_CONFIG_LOGLEVEL": 8317,
      "listen_addresses": 8318,
      "612": 8319,
      "gpl": 8320,
      "preview": 8321,
      "well": 8322,
      "default_": 8323,
      "dero": 8324,
      "stephen": 8325,
      "mediawiki": 8326,
      "javu": 8327,
      "vlad": 8328,
      "PHP_EXTRA_CONFIGURE_ARGS": 8329,
      "219": 8330,
      "EG": 8331,
      "JOB": 8332,
      "MR": 8333,
      "jmeter": 8334,
      "dejavu": 8335,
      "rmid": 8336,
      "kerl": 8337,
      "@$": 8338,
      "ace": 8339,
      "ias": 8340,
      "nes": 8341,
      "STASH": 8342,
      "groff": 8343,
      "science": 8344,
      "BOOS": 8345,
      "TRANSM": 8346,
      "ination": 8347,
      "staging": 8348,
      "1464": 8349,
      "4390": 8350,
      "some": 8351,
      "ALPINE_VERSION": 8352,
      "HUGO_VERSION": 8353,
      "Dan": 8354,
      "kbase": 8355,
      "direc": 8356,
      "ets": 8357,
      "NUX": 8358,
      "ADDITIONAL_": 8359,
      "816": 8360,
      "Be": 8361,
      "TT": 8362,
      "hol": 8363,
      "pn": 8364,
      "mkdocs": 8365,
      "906": 8366,
      "138": 8367,
      "ROOT_": 8368,
      "distroless": 8369,
      "DEFAULT": 8370,
      "telegraf": 8371,
      "OSXCROS": 8372,
      "MARIAD": 8373,
      "_O": 8374,
      "_db": 8375,
      "_Linux": 8376,
      "choco": 8377,
      "persist": 8378,
      "DEV_": 8379,
      "typesafe": 8380,
      "GRP": 8381,
      "irods": 8382,
      "leiningen": 8383,
      "900": 8384,
      "_install_": 8385,
      "goc": 8386,
      "gtest": 8387,
      "hab": 8388,
      "ECTORY": 8389,
      "BAFA": 8390,
      "SWIFT_VERSION": 8391,
      "_report": 8392,
      "36675": 8393,
      "7434390": 8394,
      "BDBE": 8395,
      "TRANSMISSION": 8396,
      "La": 8397,
      "Pay": 8398,
      "Pkg": 8399,
      "Wa": 8400,
      "lique": 8401,
      "emulator": 8402,
      "-*/": 8403,
      "numa": 8404,
      "policytool": 8405,
      "build_deps": 8406,
      "firmware": 8407,
      "120": 8408,
      "Ra": 8409,
      "Res": 8410,
      "_extension": 8411,
      "jx": 8412,
      "tname": 8413,
      "tho": 8414,
      "nox": 8415,
      "orbd": 8416,
      "dotfiles": 8417,
      "216": 8418,
      "servertool": 8419,
      "531": 8420,
      "OUTPUT": 8421,
      "powershell_version": 8422,
      "SECCOMP_PATH": 8423,
      "icinga": 8424,
      "_CROSSPLATFORMS": 8425,
      "nashorn": 8426,
      "tnameserv": 8427,
      "mg": 8428,
      "stun": 8429,
      "deli": 8430,
      "idb": 8431,
      "downloader": 8432,
      "mqtt": 8433,
      "INFO": 8434,
      "scanelf": 8435,
      "functions": 8436,
      "DBUILDSWIG": 8437,
      "adoptopenjdk": 8438,
      "628": 8439,
      "vcf": 8440,
      "PyYAML": 8441,
      "client_": 8442,
      "SPL": 8443,
      "CACHE_": 8444,
      "template_": 8445,
      "_MODU": 8446,
      "DUC": 8447,
      "credentials": 8448,
      "Juli": 8449,
      "Over": 8450,
      "_RELEASE": 8451,
      "Shift": 8452,
      "49833": 8453,
      "release_": 8454,
      "ASTER": 8455,
      "oblique": 8456,
      "USER_GID": 8457,
      "overrides": 8458,
      "UnlimitedJCEPolicyJDK": 8459,
      "VAL": 8460,
      "YSQL": 8461,
      "_BRANCH": 8462,
      "_current": 8463,
      "dif": 8464,
      "DESCRIPTION": 8465,
      "robo": 8466,
      "1584": 8467,
      "20702": 8468,
      "110809": 8469,
      "ALCON": 8470,
      "ssh_config": 8471,
      "74524": 8472,
      "FORCE_": 8473,
      "313549": 8474,
      "Martin": 8475,
      "493749833": 8476,
      "11080943": 8477,
      "313549231": 8478,
      "49374983338": 8479,
      "Type": 8480,
      "757": 8481,
      "patter": 8482,
      "libopenblas": 8483,
      "Listen": 8484,
      "9001": 8485,
      "_g": 8486,
      "bol": 8487,
      "xam": 8488,
      "nor": 8489,
      "538": 8490,
      "objs": 8491,
      "ventory": 8492,
      "DEBUG_": 8493,
      "tries": 8494,
      "DISTRIBUTION": 8495,
      "zfs": 8496,
      "/.*": 8497,
      "ami": 8498,
      "dctl": 8499,
      "SUMS": 8500,
      "xjf": 8501,
      "Authentication": 8502,
      "SPLUN": 8503,
      "288": 8504,
      "Kolla": 8505,
      "TA": 8506,
      "flo": 8507,
      "jdero": 8508,
      "ntp": 8509,
      "tan": 8510,
      "tigo": 8511,
      "ider": 8512,
      "5672": 8513,
      "ORG_": 8514,
      "0000": 8515,
      ".*$/": 8516,
      "LIMIT": 8517,
      "68286": 8518,
      "38668286": 8519,
      "John": 8520,
      "creationix": 8521,
      "Pin": 8522,
      "halcon": 8523,
      "znc": 8524,
      "allen": 8525,
      "hts": 8526,
      "libblas": 8527,
      "pkcs": 8528,
      "eeaf": 8529,
      "798": 8530,
      "datadir": 8531,
      "server_": 8532,
      "D_FILE": 8533,
      "catalog": 8534,
      "WebRequest": 8535,
      "smtp": 8536,
      "PACKAGE_URL": 8537,
      "DWITH_": 8538,
      "GCC": 8539,
      "dp": 8540,
      "kine": 8541,
      "copr": 8542,
      "USTOM": 8543,
      "904": 8544,
      "libgcrypt": 8545,
      "fr_": 8546,
      "TODO": 8547,
      "DRU": 8548,
      "gatk": 8549,
      "xamarin": 8550,
      "jderobot": 8551,
      "/-": 8552,
      "FPM": 8553,
      "PEC": 8554,
      "cted": 8555,
      "ota": 8556,
      "nobanner": 8557,
      "uby": 8558,
      "cphalcon": 8559,
      "logger": 8560,
      "supported": 8561,
      "CATALINA_": 8562,
      "webui": 8563,
      "plorer": 8564,
      "086": 8565,
      "BRO": 8566,
      "`/": 8567,
      "plot": 8568,
      "cloudsdk": 8569,
      "cyrus": 8570,
      "OSXCROSS_PATH": 8571,
      "IRO": 8572,
      "WSO": 8573,
      "gecko": 8574,
      "ERS": 8575,
      "cam": 8576,
      "dialog": 8577,
      "when": 8578,
      "REBAR": 8579,
      "048": 8580,
      "OpenShift": 8581,
      "Box": 8582,
      "aper": 8583,
      "ETR": 8584,
      "wheels": 8585,
      "basename": 8586,
      "poppler": 8587,
      "OutFile": 8588,
      "317": 8589,
      "944": 8590,
      "gun": 8591,
      "kite": 8592,
      "ilip": 8593,
      "aspell": 8594,
      "USH": 8595,
      "905": 8596,
      "5072": 8597,
      "9245": 8598,
      "Bot": 8599,
      "IS_": 8600,
      "mr": 8601,
      "pty": 8602,
      "pyyaml": 8603,
      "dam": 8604,
      "rootless": 8605,
      "_SSL": 8606,
      "west": 8607,
      "592": 8608,
      "sysconfig": 8609,
      "charmap": 8610,
      "BOOTSTRAP": 8611,
      "convertigo": 8612,
      "Process": 8613,
      "relion_": 8614,
      "Stop": 8615,
      "rich": 8616,
      "queue": 8617,
      "nappy": 8618,
      "mor": 8619,
      "michael": 8620,
      "edb": 8621,
      "NODE_": 8622,
      "2013": 8623,
      "smart": 8624,
      "inputfile": 8625,
      "periment": 8626,
      "822": 8627,
      "CPPFLAGS": 8628,
      "PUP": 8629,
      "PRESS": 8630,
      "gw": 8631,
      "gnome": 8632,
      "wilder": 8633,
      "Andre": 8634,
      "plain": 8635,
      "5516": 8636,
      "Bi": 8637,
      "BRE": 8638,
      "bator": 8639,
      "unstable": 8640,
      "_CLI_VERSION": 8641,
      "Ori": 8642,
      "R_VERSION": 8643,
      "iri": 8644,
      "ske": 8645,
      "wal": 8646,
      "metry": 8647,
      "libid": 8648,
      "utter": 8649,
      "607": 8650,
      "mysqld_": 8651,
      "7407": 8652,
      "REPOSITORY": 8653,
      "databases": 8654,
      "CONSUL_TEMPLAT": 8655,
      "incubator": 8656,
      "Qt": 8657,
      "SN": 8658,
      "packer": 8659,
      "gen_": 8660,
      "littler": 8661,
      "BS": 8662,
      "has": 8663,
      "rid": 8664,
      "liblua": 8665,
      "david": 8666,
      "chell": 8667,
      "217": 8668,
      "ADDRESS": 8669,
      "checksum": 8670,
      "forego": 8671,
      "TARGETOS": 8672,
      "asciidoc": 8673,
      "Elastic": 8674,
      "lvlad": 8675,
      "reload": 8676,
      "STOP": 8677,
      "AGENT": 8678,
      "frolvlad": 8679,
      "PHIN": 8680,
      "ftpd": 8681,
      "yahoo": 8682,
      "implemen": 8683,
      "THREADS": 8684,
      "Eng": 8685,
      "wg": 8686,
      "witch": 8687,
      "xiph": 8688,
      "NODE_PATH": 8689,
      "opencore": 8690,
      "DCT": 8691,
      "7478": 8692,
      "931": 8693,
      "ency": 8694,
      "CAgI": 8695,
      "watchdog": 8696,
      "STATIC_": 8697,
      "_again": 8698,
      "186": 8699,
      "ious": 8700,
      "round": 8701,
      "sctl": 8702,
      "232": 8703,
      "DOUT": 8704,
      "sswd": 8705,
      "_static": 8706,
      "oli": 8707,
      "notify": 8708,
      "libsw": 8709,
      "tad": 8710,
      "cape": 8711,
      "8624": 8712,
      "PID": 8713,
      "534": 8714,
      "-*-": 8715,
      "adapter": 8716,
      "Script": 8717,
      "YPT": 8718,
      "jon": 8719,
      "inetutils": 8720,
      "789": 8721,
      "7813": 8722,
      "trim": 8723,
      "ccc": 8724,
      "efcb": 8725,
      "0266": 8726,
      "Hub": 8727,
      "NVI": 8728,
      "mips": 8729,
      "confirm": 8730,
      "TRIP": 8731,
      "895": 8732,
      "3286": 8733,
      "548": 8734,
      "marke": 8735,
      "MAX": 8736,
      "HTTPD_": 8737,
      "bsdtar": 8738,
      "ANG": 8739,
      "Bin": 8740,
      "Group": 8741,
      "Sch": 8742,
      "_OPTS": 8743,
      "vul": 8744,
      "ensite": 8745,
      "revision": 8746,
      "osrm": 8747,
      "ldd": 8748,
      "libgflags": 8749,
      "foreman": 8750,
      "libxss": 8751,
      "laravel": 8752,
      "Tool": 8753,
      "Daniel": 8754,
      "_timeout": 8755,
      "xdg": 8756,
      "8440": 8757,
      "2613": 8758,
      "5233": 8759,
      "APP_VERSION": 8760,
      "msmtp": 8761,
      "error_log": 8762,
      "brain": 8763,
      "ire": 8764,
      "ung": 8765,
      "tpa": 8766,
      "9040": 8767,
      "2625": 8768,
      "mainutils": 8769,
      "googlesource": 8770,
      "cmdline": 8771,
      "bsdmainutils": 8772,
      "408": 8773,
      "886": 8774,
      "Anal": 8775,
      "SPHIN": 8776,
      "gap": 8777,
      "yy": 8778,
      "}/*": 8779,
      "ARAN": 8780,
      "themes": 8781,
      "3943": 8782,
      "GRAF": 8783,
      ",,": 8784,
      "FY": 8785,
      "mesh": 8786,
      "6409": 8787,
      "scripten": 8788,
      "IMAGE_TAG": 8789,
      "])": 8790,
      "8164": 8791,
      "libsnappy": 8792,
      "THRIFT_": 8793,
      "GU": 8794,
      "Ne": 8795,
      "_wrapper": 8796,
      "jwilder": 8797,
      "scons": 8798,
      "err": 8799,
      "cker": 8800,
      "disk": 8801,
      "boun": 8802,
      "5480": 8803,
      "9665": 8804,
      "zebo": 8805,
      "glx": 8806,
      "official": 8807,
      "ETCD_VERSION": 8808,
      "ETCDCT": 8809,
      "765": 8810,
      ">,": 8811,
      "dt": 8812,
      "chron": 8813,
      "2031": 8814,
      "vivid": 8815,
      "deployer": 8816,
      "MONGO_": 8817,
      "PUPPET": 8818,
      "018": 8819,
      "equi": 8820,
      "fusion": 8821,
      "vbox": 8822,
      "yar": 8823,
      "alive": 8824,
      "libjvm": 8825,
      "libogg": 8826,
      "chemy": 8827,
      "5314": 8828,
      "5575": 8829,
      "frog": 8830,
      "codec": 8831,
      "0208": 8832,
      "SOLR_USER": 8833,
      "er_seed_corpus": 8834,
      "SWIFT_WEB": 8835,
      "PILER": 8836,
      "/)": 8837,
      "110": 8838,
      "3687": 8839,
      "9082": 8840,
      "Dist": 8841,
      "atomic": 8842,
      "bbe": 8843,
      "speed": 8844,
      "xs": 8845,
      "2166": 8846,
      "Security": 8847,
      "window": 8848,
      "8108": 8849,
      "notebook_config": 8850,
      "6609": 8851,
      "zaar": 8852,
      "483": 8853,
      "Dis": 8854,
      "GTEST": 8855,
      "]::": 8856,
      "aom": 8857,
      "tre": 8858,
      "libusb": 8859,
      "ipa": 8860,
      "ors": 8861,
      "1954": 8862,
      "eead": 8863,
      "661": 8864,
      "reader": 8865,
      "freera": 8866,
      "libaio": 8867,
      "3918": 8868,
      "datas": 8869,
      "CXXFLAGS": 8870,
      "4567": 8871,
      "HAPRO": 8872,
      "freeradius": 8873,
      "377": 8874,
      "0042": 8875,
      "3379": 8876,
      "monit": 8877,
      "4259": 8878,
      "****************": 8879,
      "HTTP_PROXY": 8880,
      "biocLite": 8881,
      "32656": 8882,
      "LISTEN": 8883,
      "response": 8884,
      "Noninteractive": 8885,
      "476": 8886,
      "6782": 8887,
      "826": 8888,
      "PON": 8889,
      "mra": 8890,
      "vmaf": 8891,
      "coun": 8892,
      "ENCE_": 8893,
      "digest": 8894,
      "feff": 8895,
      "gpgconf": 8896,
      "afbd": 8897,
      "1622": 8898,
      "1794": 8899,
      "bdba": 8900,
      "E_ROOT": 8901,
      "7990": 8902,
      "CHAIN": 8903,
      "68166": 8904,
      "graphics": 8905,
      "Plugin": 8906,
      "cookies": 8907,
      "munge": 8908,
      "athan": 8909,
      "DEPENDENCI": 8910,
      "smoke": 8911,
      "323": 8912,
      "9242": 8913,
      "Hel": 8914,
      "bfea": 8915,
      "fL": 8916,
      "rebuild": 8917,
      "ford": 8918,
      "8614": 8919,
      "0818": 8920,
      "etcdctl": 8921,
      "0070": 8922,
      "1354": 8923,
      "2629": 8924,
      "6116": 8925,
      "4062": 8926,
      "9476": 8927,
      "unifi": 8928,
      "GPG_KEY": 8929,
      "5197": 8930,
      "xvidcore": 8931,
      "_PLUGIN": 8932,
      "0885": 8933,
      "158": 8934,
      "9072": 8935,
      "fftw": 8936,
      "0594": 8937,
      "T_PATH": 8938,
      "73719": 8939,
      "forever": 8940,
      "protocol": 8941,
      "mbda": 8942,
      "Conn": 8943,
      "MYSQL_USER": 8944,
      "fuzzer": 8945,
      "5750": 8946,
      "GRADLE_HOME": 8947,
      "KUBECT": 8948,
      "Gener": 8949,
      "SETTINGS_": 8950,
      "NUXEO": 8951,
      "4715": 8952,
      "sure": 8953,
      "andler": 8954,
      "AST": 8955,
      "FFD": 8956,
      "8825": 8957,
      "94583": 8958,
      "9526": 8959,
      "cord": 8960,
      "eaaa": 8961,
      "nltk": 8962,
      "ERVICE": 8963,
      "MODULE_": 8964,
      "9382166": 8965,
      "48034": 8966,
      "433730": 8967,
      ")$": 8968,
      "0667": 8969,
      "47948": 8970,
      "Jon": 8971,
      "Vendor": 8972,
      "_open": 8973,
      "druntime": 8974,
      "libgeos": 8975,
      "GOARM": 8976,
      "eddde": 8977,
      "ries": 8978,
      "72384": 8979,
      "724259": 8980,
      "preference": 8981,
      "1879": 8982,
      "227407": 8983,
      "43109": 8984,
      "75820": 8985,
      "75338": 8986,
      "13897": 8987,
      "52775": 8988,
      "52978": 8989,
      "794721": 8990,
      "546116": 8991,
      "74687": 8992,
      "70083": 8993,
      "50703": 8994,
      "40246": 8995,
      "8081794": 8996,
      "9260": 8997,
      "disable_": 8998,
      "068400": 8999,
      "425480": 9000,
      "bdebe": 9001,
      "1766380": 9002,
      "321608": 9003,
      "630923": 9004,
      "1994731": 9005,
      "31554": 9006,
      "46045": 9007,
      "143794721": 9008,
      "4776": 9009,
      "4636782": 9010,
      "validator": 9011,
      "685617": 9012,
      "7212031": 9013,
      "7846533": 9014,
      "aaccc": 9015,
      "8282629": 9016,
      "77455": 9017,
      "07737": 9018,
      "01992": 9019,
      "9369858": 9020,
      "06515": 9021,
      "955405": 9022,
      "142143794721": 9023,
      "daaabe": 9024,
      "_CACHE_DIR": 9025,
      "3697813": 9026,
      "37526": 9027,
      "677630923": 9028,
      "747841": 9029,
      "862468": 9030,
      "52339526": 9031,
      "96658164": 9032,
      "195444": 9033,
      "bdbaac": 9034,
      "007031": 9035,
      "9072336": 9036,
      "187932656": 9037,
      "52978125": 9038,
      "54611675338": 9039,
      "7468718": 9040,
      "7846533923": 9041,
      "3697813772": 9042,
      "677630923531": 9043,
      "NC": 9044,
      "fcc": 9045,
      "7803": 9046,
      "emscripten": 9047,
      "Google": 9048,
      "ctf": 9049,
      "taiga": 9050,
      "===": 9051,
      "bidi": 9052,
      "_NAMESPACE": 9053,
      "SERVER_": 9054,
      "EXECUT": 9055,
      "Start": 9056,
      "FLUENT": 9057,
      "spo": 9058,
      "al_": 9059,
      "ONE_": 9060,
      "libiconv": 9061,
      "cada": 9062,
      "gobb": 9063,
      "pace": 9064,
      "_CONT": 9065,
      "=./": 9066,
      "We": 9067,
      "offline": 9068,
      "Defaults": 9069,
      "USE": 9070,
      "DFFF": 9071,
      "5288": 9072,
      "dfd": 9073,
      "igbinary": 9074,
      "puma": 9075,
      "8236409": 9076,
      "root_password_again": 9077,
      "THRIFT_ROOT": 9078,
      "DENABLE_": 9079,
      "IG": 9080,
      "Sup": 9081,
      "wee": 9082,
      "nosignature": 9083,
      "linux_amd": 9084,
      "PYENV_ROOT": 9085,
      "ram": 9086,
      "_SCH": 9087,
      "401": 9088,
      "issues": 9089,
      "_SUPERUSER": 9090,
      "_NO": 9091,
      "cxx": 9092,
      "l_": 9093,
      "tile": 9094,
      "vn": 9095,
      "rethink": 9096,
      "211": 9097,
      "DB_NAME": 9098,
      "281": 9099,
      "wire": 9100,
      "factory": 9101,
      "KIBANA_VERSION": 9102,
      "ECRET_KEY": 9103,
      "_current_amd": 9104,
      "CUR": 9105,
      "gri": 9106,
      "junit": 9107,
      "inf": 9108,
      "meme": 9109,
      "roles": 9110,
      "grails": 9111,
      "EMU": 9112,
      "rr": 9113,
      "xl": 9114,
      "baselayout": 9115,
      "==${": 9116,
      "6850": 9117,
      "502": 9118,
      "Checking": 9119,
      "171": 9120,
      "Lic": 9121,
      "call": 9122,
      "tapp": 9123,
      "uber": 9124,
      "151": 9125,
      "emr": 9126,
      "detect": 9127,
      "LIBRARY": 9128,
      "LOGSTASH": 9129,
      "ALLOW_SUPERUSER": 9130,
      "DOCUMENT_": 9131,
      "DRUPA": 9132,
      "preferences": 9133,
      "K_VERSION": 9134,
      "Nu": 9135,
      "SE_": 9136,
      "_client": 9137,
      "httplib": 9138,
      "gogs": 9139,
      "tiv": 9140,
      "logo": 9141,
      "peer": 9142,
      "websocket": 9143,
      "BUILD_PACKAGES": 9144,
      "JENKINS_VERSION": 9145,
      "ified": 9146,
      "flag": 9147,
      "snapshots": 9148,
      "7058": 9149,
      "libidn": 9150,
      "373": 9151,
      "sent": 9152,
      "decrypt": 9153,
      "libd": 9154,
      "cept": 9155,
      "fat": 9156,
      "ascript": 9157,
      "quant": 9158,
      "PKG_NAME": 9159,
      "optimize": 9160,
      "/%%": 9161,
      "_run": 9162,
      "hm": 9163,
      "inue": 9164,
      "cdde": 9165,
      "sfn": 9166,
      "##*/": 9167,
      "REV": 9168,
      "SOUND": 9169,
      "wkhtmltox": 9170,
      "_GB": 9171,
      "PLONE_": 9172,
      "City": 9173,
      "DY": 9174,
      "_docker": 9175,
      "lines": 9176,
      "ssl_": 9177,
      "CAFF": 9178,
      "Proxy": 9179,
      "SIGNAL": 9180,
      "WSGI": 9181,
      "geth": 9182,
      "tage": 9183,
      "https_proxy": 9184,
      "presto": 9185,
      "44734": 9186,
      "9254": 9187,
      "Strict": 9188,
      "prise": 9189,
      "hubble_build": 9190,
      "leveldb": 9191,
      "fr_FR": 9192,
      "3792": 9193,
      "Tok": 9194,
      "_api": 9195,
      "wb": 9196,
      "foundation": 9197,
      "ception": 9198,
      "factor": 9199,
      "lambda": 9200,
      "URATION": 9201,
      "=$?": 9202,
      "INFO_FILE": 9203,
      "6173": 9204,
      "commandline": 9205,
      "dian": 9206,
      "185": 9207,
      "054": 9208,
      "mitchell": 9209,
      "Infra": 9210,
      "bfdd": 9211,
      "chromedriver_linux": 9212,
      "lum": 9213,
      "uff": 9214,
      "UNI": 9215,
      "river": 9216,
      "9993": 9217,
      "9484": 9218,
      "UPDAT": 9219,
      "PROJ": 9220,
      "EXTRAS": 9221,
      "WRIT": 9222,
      "LIBBLURAY_VERSION": 9223,
      "EV": 9224,
      "_FILENAME": 9225,
      "hal": 9226,
      "wen": 9227,
      "ority": 9228,
      "mindepth": 9229,
      "INSTAN": 9230,
      "subj": 9231,
      "submodules": 9232,
      "object": 9233,
      "CONTAINER_SCRIPTS_PATH": 9234,
      "REDIS_VERSION": 9235,
      "WILDFLY_VERSION": 9236,
      "STOPSIGNAL": 9237,
      "GIN_": 9238,
      "Home": 9239,
      "JMET": 9240,
      "cule": 9241,
      "7702": 9242,
      "5271": 9243,
      "googlegroups": 9244,
      "virtuoso": 9245,
      "att": 9246,
      "PHALCON": 9247,
      "_TARBALL": 9248,
      "GRAV": 9249,
      "TERN": 9250,
      "dbae": 9251,
      "FFMPEG_VERSION": 9252,
      "WH": 9253,
      "tro": 9254,
      "goroot": 9255,
      "days": 9256,
      "1171": 9257,
      "BIGD": 9258,
      "05983": 9259,
      "93148": 9260,
      "25798": 9261,
      "marathon": 9262,
      "99099": 9263,
      "maxdepth": 9264,
      "____": 9265,
      "flake": 9266,
      "31282": 9267,
      "REVISION": 9268,
      "stunnel": 9269,
      "Override": 9270,
      "8226533": 9271,
      "5516019": 9272,
      "equivs": 9273,
      "925405983": 9274,
      "mitchellh": 9275,
      "BY": 9276,
      "Fer": 9277,
      "Pi": 9278,
      "PUB": 9279,
      "_packages": 9280,
      "grub": 9281,
      "wd": 9282,
      "desk": 9283,
      "rom": 9284,
      "fam": 9285,
      "who": 9286,
      "webkit": 9287,
      "COMPOSER_VERSION": 9288,
      "SERVER_PORT": 9289,
      "nextcloud": 9290,
      "resolv": 9291,
      "COMPOSER_ALLOW_SUPERUSER": 9292,
      "GALAXY_CONFIG_": 9293,
      "programs": 9294,
      "jfrog": 9295,
      "mac": 9296,
      "tian": 9297,
      "whis": 9298,
      "CEB": 9299,
      "2480": 9300,
      "drill": 9301,
      "squash": 9302,
      "CRYPT": 9303,
      "_reporting": 9304,
      "}*": 9305,
      "ond": 9306,
      "tabs": 9307,
      "dirs": 9308,
      "1873": 9309,
      "libgconf": 9310,
      "utilities": 9311,
      "MAKE": 9312,
      "%%/%%": 9313,
      "progressbar": 9314,
      "PROTOBU": 9315,
      "omiz": 9316,
      "Agent": 9317,
      "FCC": 9318,
      "TOOLS_VERSION": 9319,
      "loaded": 9320,
      "2071": 9321,
      "9092": 9322,
      "2666": 9323,
      "mysqldb": 9324,
      "5371": 9325,
      "pcraft": 9326,
      "wrapdocker": 9327,
      "snapcraft": 9328,
      "Christian": 9329,
      "NAGIOS": 9330,
      "License": 9331,
      "_default": 9332,
      "hdri": 9333,
      "spell": 9334,
      "pick": 9335,
      "7401": 9336,
      "7354": 9337,
      "merge": 9338,
      "javascript": 9339,
      "ZEPPELIN": 9340,
      "4183": 9341,
      "TARBALL": 9342,
      "_net": 9343,
      "dpi": 9344,
      "hap": 9345,
      "inventory": 9346,
      "en_GB": 9347,
      "adab": 9348,
      "7845": 9349,
      "7442": 9350,
      "bby": 9351,
      "luence": 9352,
      "4001": 9353,
      "sonarsource": 9354,
      "bbdd": 9355,
      "_CLIENT_": 9356,
      "BITCOIN_VERSION": 9357,
      "PHP_CPPFLAGS": 9358,
      "4866": 9359,
      "Engine": 9360,
      "GRAFAN": 9361,
      "7001": 9362,
      "=:": 9363,
      "moun": 9364,
      "AVE_": 9365,
      "1328": 9366,
      "quet": 9367,
      "facebook": 9368,
      "define": 9369,
      "bigdl": 9370,
      "GEN_VERSION": 9371,
      "ErrorAction": 9372,
      "ErrorActionPreference": 9373,
      "5883": 9374,
      "6268": 9375,
      "gm": 9376,
      "lb": 9377,
      "uth": 9378,
      "mass": 9379,
      "ison": 9380,
      "adff": 9381,
      "cedf": 9382,
      "strings": 9383,
      "addr": 9384,
      "lace": 9385,
      "T_NAME": 9386,
      "bfcd": 9387,
      "GIN_VERSION": 9388,
      "GOLANG_DOWNLOAD_SHA": 9389,
      "DB_HOST": 9390,
      "Document": 9391,
      "TRIPLE": 9392,
      "2082": 9393,
      "TC": 9394,
      "301": 9395,
      "0443": 9396,
      "cfssl": 9397,
      "5116": 9398,
      "7471": 9399,
      "SHAR": 9400,
      "center": 9401,
      "CONNEC": 9402,
      "Maria": 9403,
      "0298": 9404,
      "rethinkdb": 9405,
      "You": 9406,
      "spl": 9407,
      "modern": 9408,
      "Notebook": 9409,
      "cern": 9410,
      "49176": 9411,
      "05395": 9412,
      "32770": 9413,
      "Seba": 9414,
      "inity": 9415,
      "73637": 9416,
      "69905": 9417,
      "59861": 9418,
      "47010": 9419,
      "Proto": 9420,
      "gazebo": 9421,
      "4547": 9422,
      "91547010": 9423,
      "tokenizer": 9424,
      "4807442": 9425,
      "manifest": 9426,
      "initialize": 9427,
      "lucene": 9428,
      "914974": 9429,
      "zend_extension": 9430,
      "62687471": 9431,
      "/%": 9432,
      "3001": 9433,
      "Sto": 9434,
      "UG": 9435,
      "atom": 9436,
      "uz": 9437,
      "anap": 9438,
      "openblas": 9439,
      "posix": 9440,
      "pax": 9441,
      "Chris": 9442,
      "DEBCONF": 9443,
      "4267845": 9444,
      "COLOR": 9445,
      "KOLLA_NAMESPACE": 9446,
      "Lists": 9447,
      "dsa_key": 9448,
      "086888": 9449,
      "FIN": 9450,
      "react": 9451,
      "unused": 9452,
      "gold": 9453,
      "thew": 9454,
      "explorer": 9455,
      "2486": 9456,
      "dfs": 9457,
      "rubies": 9458,
      "7147401": 9459,
      "ricks": 9460,
      "DISTRO_NAME": 9461,
      "KOLLA_PREFIX": 9462,
      "fastcgi_": 9463,
      "MYSQL_JAVA_CONNECTOR_NAME": 9464,
      "BREW": 9465,
      "7354114": 9466,
      "1328291": 9467,
      "_port": 9468,
      "/*-": 9469,
      "phpre": 9470,
      "peter": 9471,
      "TOMCAT_MINOR_VERSION": 9472,
      "AWS_S": 9473,
      "ssh_host_dsa_key": 9474,
      "GNU_TYPE": 9475,
      "elif": 9476,
      "pit": 9477,
      "installsuffix": 9478,
      "libm": 9479,
      "ansi": 9480,
      "PHP_LDFLAGS": 9481,
      "ACTIVE_": 9482,
      "local_settings": 9483,
      "Shopping": 9484,
      "kraken": 9485,
      "MINOR_VERSION": 9486,
      "FLINK": 9487,
      "JS": 9488,
      "LINT": 9489,
      "Str": 9490,
      "glog": 9491,
      "EXAMP": 9492,
      "DB_USER": 9493,
      "empty": 9494,
      "ouse": 9495,
      "5852": 9496,
      "APT_INSTALL": 9497,
      "guard": 9498,
      "CROSS_TRIPLE": 9499,
      "jupyter_notebook_config": 9500,
      "_SHARED_": 9501,
      "delivery": 9502,
      "TLS": 9503,
      "fdd": 9504,
      "spi": 9505,
      "wlp": 9506,
      "writer": 9507,
      "environ": 9508,
      "ula": 9509,
      "psutil": 9510,
      "tsy": 9511,
      "_SECRET": 9512,
      "Setup": 9513,
      "3953": 9514,
      "PHP_FILENAME": 9515,
      "OPENC": 9516,
      "GIT_BRANCH": 9517,
      "ipykernel": 9518,
      "LOCK_DIR": 9519,
      "seafile": 9520,
      "anapsix": 9521,
      "/@": 9522,
      "sstephen": 9523,
      "pytorch": 9524,
      "libarchive": 9525,
      "tim": 9526,
      "Debug": 9527,
      "645": 9528,
      "OpenSSL": 9529,
      "libuuid": 9530,
      "msgpack": 9531,
      "mobile": 9532,
      "ography": 9533,
      "sstephenson": 9534,
      "8842": 9535,
      "Pat": 9536,
      "Stu": 9537,
      "blu": 9538,
      "fle": 9539,
      "uge": 9540,
      "dead": 9541,
      "mecab": 9542,
      "4993": 9543,
      "LOCATION": 9544,
      "libpthread": 9545,
      "GRANT": 9546,
      "drive": 9547,
      "_SERVER_": 9548,
      "dbab": 9549,
      "_regen_": 9550,
      "widgets": 9551,
      "primer": 9552,
      "gorithm": 9553,
      "Infrastructure": 9554,
      "756": 9555,
      "Cer": 9556,
      "KNO": 9557,
      "Of": 9558,
      "upm": 9559,
      "INDEX": 9560,
      "aggregator": 9561,
      "commons": 9562,
      "9219": 9563,
      "simplesaml": 9564,
      "68423": 9565,
      "ssh_host_keys": 9566,
      "jmxremote": 9567,
      "_regen_ssh_host_keys": 9568,
      "_load": 9569,
      "ato": 9570,
      "gif": 9571,
      "installs": 9572,
      "daily": 9573,
      "646": 9574,
      "container_": 9575,
      "confluence": 9576,
      "zipkin": 9577,
      "mia": 9578,
      "8088": 9579,
      "gobblin": 9580,
      "whisper": 9581,
      "3176": 9582,
      "VE": 9583,
      "_entrypoint": 9584,
      "iq": 9585,
      "skel": 9586,
      "wel": 9587,
      "libopencv": 9588,
      "diag": 9589,
      "phpcs": 9590,
      "2022": 9591,
      "_CI": 9592,
      "minion": 9593,
      "FILES": 9594,
      "ja_J": 9595,
      "params": 9596,
      "16434": 9597,
      "499368423": 9598,
      "9219738": 9599,
      "ja_JP": 9600,
      "499368423437": 9601,
      "-`": 9602,
      "_link": 9603,
      "gcp": 9604,
      "}${": 9605,
      "ille": 9606,
      "libun": 9607,
      "libgomp": 9608,
      "but": 9609,
      "genome": 9610,
      "grok": 9611,
      "Paris": 9612,
      "authenticated": 9613,
      "xhprof": 9614,
      "kinetic": 9615,
      "526": 9616,
      "rpath": 9617,
      "openjpeg": 9618,
      "2074": 9619,
      "_CLASSPATH": 9620,
      "_SER": 9621,
      "lerate": 9622,
      "_version_": 9623,
      "BEAT": 9624,
      "Comm": 9625,
      "_filter_module": 9626,
      "allenge": 9627,
      "./*/": 9628,
      "Yelp": 9629,
      "cog": 9630,
      "unprivileged": 9631,
      "die": 9632,
      "diction": 9633,
      "baseurl": 9634,
      "linux_x": 9635,
      "ader": 9636,
      "iang": 9637,
      "8055": 9638,
      "sysctl": 9639,
      "Index": 9640,
      "projec": 9641,
      "3519": 9642,
      "migrations": 9643,
      "execution": 9644,
      "Cleanup": 9645,
      "geckodriver": 9646,
      "PONENT": 9647,
      "278": 9648,
      "Tho": 9649,
      "TLE_": 9650,
      "acad": 9651,
      "oid": 9652,
      "installing": 9653,
      "htaccess": 9654,
      "noprogressbar": 9655,
      "modb": 9656,
      "7952": 9657,
      "ME_VERSION": 9658,
      "logfile": 9659,
      "8964": 9660,
      "0928": 9661,
      "googletest": 9662,
      "ameter": 9663,
      "6700": 9664,
      "scrapy": 9665,
      "HostKeyChecking": 9666,
      "StrictHostKeyChecking": 9667,
      "#&&": 9668,
[...]
